{
  "version": "1.0",
  "truncation": null,
  "padding": null,
  "added_tokens": [
    {
      "id": 0,
      "content": "<unk>",
      "single_word": false,
      "lstrip": false,
      "rstrip": false,
      "normalized": false,
      "special": true
    },
    {
      "id": 1,
      "content": "<pad>",
      "single_word": false,
      "lstrip": false,
      "rstrip": false,
      "normalized": false,
      "special": true
    },
    {
      "id": 2,
      "content": "<s>",
      "single_word": false,
      "lstrip": false,
      "rstrip": false,
      "normalized": false,
      "special": true
    },
    {
      "id": 3,
      "content": "</s>",
      "single_word": false,
      "lstrip": false,
      "rstrip": false,
      "normalized": false,
      "special": true
    }
  ],
  "normalizer": {
    "type": "Replace",
    "pattern": {
      "String": "\n"
    },
    "content": "␊"
  },
  "pre_tokenizer": {
    "type": "Sequence",
    "pretokenizers": [
      {
        "type": "Metaspace",
        "replacement": "▁",
        "prepend_scheme": "always",
        "split": true
      },
      {
        "type": "Split",
        "pattern": {
          "String": "␊"
        },
        "behavior": "Isolated",
        "invert": false
      },
      {
        "type": "Punctuation",
        "behavior": "Isolated"
      }
    ]
  },
  "post_processor": {
    "type": "TemplateProcessing",
    "single": [
      {
        "Sequence": {
          "id": "A",
          "type_id": 0
        }
      }
    ],
    "pair": [
      {
        "Sequence": {
          "id": "A",
          "type_id": 0
        }
      },
      {
        "Sequence": {
          "id": "B",
          "type_id": 1
        }
      }
    ],
    "special_tokens": {}
  },
  "decoder": {
    "type": "Sequence",
    "decoders": [
      {
        "type": "Metaspace",
        "replacement": "▁",
        "prepend_scheme": "always",
        "split": true
      },
      {
        "type": "Replace",
        "pattern": {
          "String": "␊"
        },
        "content": "\n"
      }
    ]
  },
  "model": {
    "type": "BPE",
    "dropout": null,
    "unk_token": "<unk>",
    "continuing_subword_prefix": null,
    "end_of_word_suffix": null,
    "fuse_unk": false,
    "byte_fallback": false,
    "ignore_merges": false,
    "vocab": {
      "<unk>": 0,
      "<pad>": 1,
      "<s>": 2,
      "</s>": 3,
      "\"": 4,
      "'": 5,
      ",": 6,
      "-": 7,
      ".": 8,
      "0": 9,
      "1": 10,
      "2": 11,
      "3": 12,
      "4": 13,
      "5": 14,
      "6": 15,
      "7": 16,
      "8": 17,
      "9": 18,
      ":": 19,
      "A": 20,
      "B": 21,
      "C": 22,
      "D": 23,
      "E": 24,
      "F": 25,
      "G": 26,
      "H": 27,
      "I": 28,
      "K": 29,
      "L": 30,
      "M": 31,
      "N": 32,
      "Q": 33,
      "R": 34,
      "S": 35,
      "T": 36,
      "U": 37,
      "Z": 38,
      "_": 39,
      "a": 40,
      "b": 41,
      "c": 42,
      "d": 43,
      "e": 44,
      "f": 45,
      "g": 46,
      "h": 47,
      "i": 48,
      "k": 49,
      "l": 50,
      "m": 51,
      "n": 52,
      "o": 53,
      "p": 54,
      "q": 55,
      "r": 56,
      "s": 57,
      "t": 58,
      "u": 59,
      "v": 60,
      "w": 61,
      "x": 62,
      "y": 63,
      "z": 64,
      "{": 65,
      "}": 66,
      "°": 67,
      "▁": 68,
      "00": 69,
      "at": 70,
      "02": 71,
      "ig": 72,
      "st": 73,
      "re": 74,
      "ht": 75,
      "ight": 76,
      "202": 77,
      "0000": 78,
      "dat": 79,
      "est": 80,
      "date": 81,
      "2025": 82,
      "da": 83,
      "02T": 84,
      "ar": 85,
      "en": 86,
      "on": 87,
      "in": 88,
      "ri": 89,
      "▁0": 90,
      "we": 91,
      "car": 92,
      "er": 93,
      "vo": 94,
      "di": 95,
      "ys": 96,
      "01": 97,
      "ch": 98,
      "dest": 99,
      "gre": 100,
      "light": 101,
      "ou": 102,
      "pat": 103,
      "qu": 104,
      "spat": 105,
      "to": 106,
      "ati": 107,
      "requ": 108,
      "000000": 109,
      "days": 110,
      "enlight": 111,
      "rier": 112,
      "weight": 113,
      "carrier": 114,
      "vol": 115,
      "dispat": 116,
      "greenlight": 117,
      "request": 118,
      "dispatch": 119,
      "an": 120,
      "▁1": 121,
      "ne": 122,
      "30": 123,
      "02T0": 124,
      "04": 125,
      "02T1": 126,
      "▁L": 127,
      "ic": 128,
      "Sig": 129,
      "gi": 130,
      "ogi": 131,
      "stic": 132,
      "inon": 133,
      "▁Logi": 134,
      "Siginon": 135,
      "stics": 136,
      "▁Logistics": 137,
      "anda": 138,
      "me": 139,
      "02T09": 140,
      "05": 141,
      "mo": 142,
      "ya": 143,
      "fe": 144,
      "ce": 145,
      "cb": 146,
      "te": 147,
      "Ken": 148,
      "Kenya": 149,
      "tr": 150,
      "art": 151,
      "cou": 152,
      "kg": 153,
      "n°": 154,
      "nce": 155,
      "ntr": 156,
      "or": 157,
      "part": 158,
      "rou": 159,
      "rati": 160,
      "sig": 161,
      "ume": 162,
      "stl": 163,
      "refe": 164,
      "rence": 165,
      "inati": 166,
      "destinati": 167,
      "volume": 168,
      "ned": 169,
      "mostl": 170,
      "cbm": 171,
      "countr": 172,
      "route": 173,
      "ratio": 174,
      "signed": 175,
      "reference": 176,
      "destination": 177,
      "country": 178,
      "Ug": 179,
      "Uganda": 180,
      "mostly": 181,
      "20": 182,
      "02T10": 183,
      "03": 184,
      "07": 185,
      "29": 186,
      "02T01": 187,
      "Ku": 188,
      "Na": 189,
      "eh": 190,
      "el": 191,
      "gel": 192,
      "▁Na": 193,
      "Kueh": 194,
      "▁Nagel": 195,
      "Kuehne": 196,
      "▁29": 197,
      "▁16": 198,
      "T1": 199,
      "ia": 200,
      "▁17": 201,
      "24": 202,
      "33": 203,
      "▁15": 204,
      "16": 205,
      "02T14": 206,
      "Con": 207,
      "DR": 208,
      "go": 209,
      "▁Con": 210,
      "▁Congo": 211,
      "06": 212,
      "mb": 213,
      "22": 214,
      "45": 215,
      "31": 216,
      "Tan": 217,
      "zan": 218,
      "Tanzan": 219,
      "Tanzania": 220,
      "Rw": 221,
      "Rwanda": 222,
      "49": 223,
      "ab": 224,
      "Co": 225,
      "48": 226,
      "47": 227,
      "46": 228,
      "T12": 229,
      "41": 230,
      "02T03": 231,
      "40": 232,
      "15": 233,
      "43": 234,
      "10": 235,
      "28": 236,
      "Ma": 237,
      "09": 238,
      "ad": 239,
      "25": 240,
      "27": 241,
      "89": 242,
      "85": 243,
      "86": 244,
      "87": 245,
      "23": 246,
      "os": 247,
      "ros": 248,
      "moros": 249,
      "Comoros": 250,
      "26": 251,
      "81": 252,
      "96": 253,
      "35": 254,
      "95": 255,
      "36": 256,
      "37": 257,
      "▁T": 258,
      "ea": 259,
      "Zi": 260,
      "mbab": 261,
      "Zimbab": 262,
      "Zimbabwe": 263,
      "21": 264,
      "97": 265,
      "44": 266,
      "91": 267,
      "as": 268,
      "gas": 269,
      "dagas": 270,
      "Madagas": 271,
      "Madagascar": 272,
      "133": 273,
      "55": 274,
      "88": 275,
      "4b": 276,
      "02T02": 277,
      "02T12": 278,
      "20T12": 279,
      "rit": 280,
      "17": 281,
      "ca": 282,
      "4f": 283,
      "4d": 284,
      "4e": 285,
      "39": 286,
      "Za": 287,
      "mbia": 288,
      "Zambia": 289,
      "Sa": 290,
      "ome": 291,
      "▁Tome": 292,
      "Sao": 293,
      "4a": 294,
      "99": 295,
      "66": 296,
      "83": 297,
      "ire": 298,
      "4c": 299,
      "42": 300,
      "77": 301,
      "11": 302,
      "▁A": 303,
      "T11": 304,
      "65": 305,
      "67": 306,
      "Ch": 307,
      "Chad": 308,
      "08": 309,
      "51": 310,
      "57": 311,
      "38": 312,
      "69": 313,
      "98": 314,
      "71": 315,
      "ba": 316,
      "61": 317,
      "93": 318,
      "75": 319,
      "Gu": 320,
      "inea": 321,
      "Guinea": 322,
      "82": 323,
      "56": 324,
      "59": 325,
      "73": 326,
      "76": 327,
      "24T": 328,
      "Fre": 329,
      "ime": 330,
      "Freight": 331,
      "50": 332,
      "bf": 333,
      "be": 334,
      "bd": 335,
      "19": 336,
      "68": 337,
      "79": 338,
      "53": 339,
      "58": 340,
      "72": 341,
      "78": 342,
      "18": 343,
      "63": 344,
      "lvo": 345,
      "▁d": 346,
      "Cote": 347,
      "lvoire": 348,
      "13": 349,
      "92": 350,
      "cd": 351,
      "cf": 352,
      "Erit": 353,
      "rea": 354,
      "Eritrea": 355,
      "AR": 356,
      "RAR": 357,
      "RARE": 358,
      "ae": 359,
      "mostlya": 360,
      "af": 361,
      "bb": 362,
      "mostlyf": 363,
      "8d": 364,
      "Bu": 365,
      "ndi": 366,
      "ru": 367,
      "Buru": 368,
      "Burundi": 369,
      "8e": 370,
      "32": 371,
      "52": 372,
      "54": 373,
      "mostlyd": 374,
      "mostlye": 375,
      "9e": 376,
      "8f": 377,
      "62": 378,
      "9d": 379,
      "9f": 380,
      "84": 381,
      "In": 382,
      "▁In": 383,
      "iu": 384,
      "urit": 385,
      "Maurit": 386,
      "ius": 387,
      "Mauritius": 388,
      "64": 389,
      "bc": 390,
      "2024": 391,
      "12": 392,
      "Si": 393,
      "eon": 394,
      "ra": 395,
      "erra": 396,
      "▁Leon": 397,
      "Sierra": 398,
      "▁Leone": 399,
      "74": 400,
      "94": 401,
      "aa": 402,
      "ays": 403,
      "ir": 404,
      "ways": 405,
      "▁Air": 406,
      "▁Airways": 407,
      "34": 408,
      "b7": 409,
      "b5": 410,
      "Cen": 411,
      "Re": 412,
      "al": 413,
      "bl": 414,
      "fri": 415,
      "pu": 416,
      "▁Re": 417,
      "tral": 418,
      "▁Afri": 419,
      "Central": 420,
      "blic": 421,
      "public": 422,
      "▁Republic": 423,
      "▁Africa": 424,
      "0f": 425,
      "0d": 426,
      "0e": 427,
      "b6": 428,
      "cc": 429,
      "22T": 430,
      "b1": 431,
      "14": 432,
      "8a": 433,
      "▁13": 434,
      "9a": 435,
      "▁2": 436,
      "b3": 437,
      "▁18": 438,
      "24T11": 439,
      "time": 440,
      "▁time": 441,
      "8c": 442,
      "2d": 443,
      "2e": 444,
      "2f": 445,
      "9c": 446,
      "▁19": 447,
      "0a": 448,
      "ff": 449,
      "de": 450,
      "c7": 451,
      "c6": 452,
      "▁14": 453,
      "c5": 454,
      "c1": 455,
      "Dire": 456,
      "KQ": 457,
      "ct": 458,
      "▁ch": 459,
      "arter": 460,
      "Direct": 461,
      "▁charter": 462,
      "24T12": 463,
      "dd": 464,
      "3e": 465,
      "a7": 466,
      "8b": 467,
      "a6": 468,
      "9b": 469,
      "a5": 470,
      "df": 471,
      "T10": 472,
      "22T05": 473,
      "3f": 474,
      "Et": 475,
      "hi": 476,
      "op": 477,
      "Ethi": 478,
      "opia": 479,
      "Ethiopia": 480,
      "a1": 481,
      "ee": 482,
      "90": 483,
      "70": 484,
      "3d": 485,
      "ac": 486,
      "▁4": 487,
      "ef": 488,
      "7f": 489,
      "1f": 490,
      "6f": 491,
      "Su": 492,
      "dan": 493,
      "Sudan": 494,
      "2a": 495,
      "T09": 496,
      "80": 497,
      "31T": 498,
      "▁6": 499,
      "b9": 500,
      "5f": 501,
      "1e": 502,
      "6e": 503,
      "2c": 504,
      "7e": 505,
      "5e": 506,
      "▁Time": 507,
      "▁3": 508,
      "b8": 509,
      "0c": 510,
      "7d": 511,
      "5d": 512,
      "1d": 513,
      "24T05": 514,
      "▁5": 515,
      "2b": 516,
      "▁31": 517,
      "6d": 518,
      "3a": 519,
      "0b": 520,
      "3c": 521,
      "fd": 522,
      "3b": 523,
      "c9": 524,
      "ed": 525,
      "31T04": 526,
      "7a": 527,
      "c3": 528,
      "1a": 529,
      "c8": 530,
      "5a": 531,
      "6a": 532,
      "7c": 533,
      "1b": 534,
      "5c": 535,
      "1c": 536,
      "7b": 537,
      "02T00": 538,
      "6b": 539,
      "5b": 540,
      "fa": 541,
      "6c": 542,
      "T14": 543,
      "b2": 544,
      "▁9": 545,
      "b0": 546,
      "DH": 547,
      "Ex": 548,
      "pre": 549,
      "ss": 550,
      "▁Ex": 551,
      "DHL": 552,
      "press": 553,
      "▁Express": 554,
      "dc": 555,
      "b4": 556,
      "fc": 557,
      "▁7": 558,
      "60": 559,
      "a9": 560,
      "▁in": 561,
      "fb": 562,
      "c2": 563,
      "a3": 564,
      "ec": 565,
      "db": 566,
      "a8": 567,
      "d6": 568,
      "c4": 569,
      "f7": 570,
      "Gl": 571,
      "Sc": 572,
      "oba": 573,
      "▁Gl": 574,
      "Scan": 575,
      "obal": 576,
      "▁Global": 577,
      "d5": 578,
      "d7": 579,
      "f6": 580,
      "23T11": 581,
      "c0": 582,
      "f5": 583,
      "d1": 584,
      "eb": 585,
      "f1": 586,
      "▁30": 587,
      "e7": 588,
      "e5": 589,
      "f9": 590,
      "24T09": 591,
      "30T": 592,
      "e6": 593,
      "e1": 594,
      "d3": 595,
      "22T10": 596,
      "f8": 597,
      "d9": 598,
      "d8": 599,
      "▁135": 600,
      "f3": 601,
      "a2": 602,
      "e9": 603,
      "▁137": 604,
      "▁136": 605,
      "28T12": 606,
      "e3": 607,
      "e8": 608,
      "30T12": 609,
      "▁133": 610,
      "24T01": 611,
      "a4": 612,
      "f2": 613,
      "a0": 614,
      "▁141": 615,
      "d2": 616,
      "f0": 617,
      "▁70": 618,
      "▁27": 619,
      "▁69": 620,
      "d4": 621,
      "f4": 622,
      "▁71": 623,
      "d0": 624,
      "02T11": 625,
      "▁8": 626,
      "▁20": 627,
      "e4": 628,
      "22T11": 629,
      "e2": 630,
      "e0": 631,
      "▁73": 632,
      "▁72": 633,
      "▁143": 634,
      "▁145": 635,
      "030": 636,
      "▁195": 637,
      "▁196": 638,
      "▁149": 639,
      "017": 640,
      "▁185": 641,
      "057": 642,
      "007": 643,
      "▁146": 644,
      "▁148": 645,
      "▁186": 646,
      "015": 647,
      "▁187": 648,
      "025": 649,
      "▁189": 650,
      "005": 651,
      "▁147": 652,
      "037": 653,
      "047": 654,
      "067": 655,
      "077": 656,
      "045": 657,
      "065": 658,
      "027": 659,
      "006": 660,
      "016": 661,
      "055": 662,
      "035": 663,
      "▁139": 664,
      "30T09": 665,
      "075": 666,
      "046": 667,
      "026": 668,
      "056": 669,
      "T01": 670,
      "009": 671,
      "Non": 672,
      "so": 673,
      "Nonso": 674,
      "▁131": 675,
      "076": 676,
      "021": 677,
      "02T08": 678,
      "011": 679,
      "001": 680,
      "051": 681,
      "066": 682,
      "24T03": 683,
      "31T11": 684,
      "071": 685,
      "019": 686,
      "041": 687,
      "036": 688,
      "059": 689,
      "▁25": 690,
      "018": 691,
      "24T10": 692,
      "069": 693,
      "079": 694,
      "▁21": 695,
      "049": 696,
      "031": 697,
      "029": 698,
      "061": 699,
      "448": 700,
      "039": 701,
      "008": 702,
      "445": 703,
      "078": 704,
      "30T03": 705,
      "▁24": 706,
      "058": 707,
      "449": 708,
      "425": 709,
      "028": 710,
      "▁181": 711,
      "048": 712,
      "▁22": 713,
      "426": 714,
      "427": 715,
      "446": 716,
      "429": 717,
      "431": 718,
      "424": 719,
      "▁191": 720,
      "428": 721,
      "068": 722,
      "416": 723,
      "▁65": 724,
      "038": 725,
      "▁45": 726,
      "447": 727,
      "433": 728,
      "003": 729,
      "AS": 730,
      "HAS": 731,
      "NHAS": 732,
      "UNHAS": 733,
      "▁23": 734,
      "441": 735,
      "24T14": 736,
      "▁11": 737,
      "013": 738,
      "02T05": 739,
      "043": 740,
      "053": 741,
      "▁66": 742,
      "023": 743,
      "182": 744,
      "28T11": 745,
      "423": 746,
      "T03": 747,
      "073": 748,
      "033": 749,
      "422": 750,
      "063": 751,
      "421": 752,
      "30T10": 753,
      "443": 754,
      "430": 755,
      "▁68": 756,
      "▁67": 757,
      "▁44": 758,
      "23T12": 759,
      "▁59": 760,
      "4da": 761,
      "▁188": 762,
      "4ab": 763,
      "25T09": 764,
      "▁64": 765,
      "▁26": 766,
      "4ce": 767,
      "4fe": 768,
      "▁138": 769,
      "4ad": 770,
      "4cb": 771,
      "▁28": 772,
      "▁35": 773,
      "▁90": 774,
      "▁43": 775,
      "▁50": 776,
      "407": 777,
      "153": 778,
      "406": 779,
      "▁36": 780,
      "▁129": 781,
      "30T01": 782,
      "409": 783,
      "4ea": 784,
      "405": 785,
      "4ca": 786,
      "420": 787,
      "402": 788,
      "401": 789,
      "▁47": 790,
      "▁128": 791,
      "▁127": 792,
      "404": 793,
      "▁125": 794,
      "▁100": 795,
      "22T12": 796,
      "▁126": 797,
      "T05": 798,
      "403": 799,
      "151": 800,
      "275": 801,
      "mostly3c": 802,
      "02T04": 803,
      "mostly82": 804,
      "mostly81": 805,
      "400": 806,
      "mostlya9": 807,
      "181": 808,
      "mostly4b": 809,
      "mostlyf3": 810,
      "mostly39": 811,
      "mostlyb5": 812,
      "mostlya6": 813,
      "mostly90": 814,
      "277": 815,
      "mostly65": 816,
      "mostly63": 817,
      "mostlyf9": 818,
      "mostly18": 819,
      "mostly57": 820,
      "mostlyea": 821,
      "mostly38": 822,
      "mostly6f": 823,
      "mostlyf0": 824,
      "mostlyc1": 825,
      "mostlyf6": 826,
      "mostly25": 827,
      "mostlybd": 828,
      "mostly8b": 829,
      "mostly1a": 830,
      "mostlyec": 831,
      "mostly1f": 832,
      "mostly5b": 833,
      "mostlyb7": 834,
      "mostly1b": 835,
      "31T05": 836,
      "mostlyfe": 837,
      "mostly10": 838,
      "mostly50": 839,
      "▁275": 840,
      "mostly96": 841,
      "mostly23": 842,
      "mostlycd": 843,
      "▁10": 844,
      "mostly8d": 845,
      "mostly0d": 846,
      "mostlycb": 847,
      "mostlya3": 848,
      "mostlye0": 849,
      "mostly70": 850,
      "mostly0c": 851,
      "224": 852,
      "mostly78": 853,
      "mostlyc3": 854,
      "mostly7b": 855,
      "mostlyf7": 856,
      "mostlyfb": 857,
      "mostly20": 858,
      "mostlyd9": 859,
      "mostlye5": 860,
      "mostly43": 861,
      "mostly69": 862,
      "mostlydf": 863,
      "mostly2d": 864,
      "mostly71": 865,
      "mostly19": 866,
      "mostly62": 867,
      "229": 868,
      "mostly02": 869,
      "mostly0f": 870,
      "mostlyf2": 871,
      "mostlyb6": 872,
      "mostlyc8": 873,
      "mostlya4": 874,
      "mostly29": 875,
      "mostly77": 876,
      "mostly9e": 877,
      "mostly3e": 878,
      "mostly0b": 879,
      "mostlyb9": 880,
      "mostly3a": 881,
      "mostly03": 882,
      "mostly60": 883,
      "mostly46": 884,
      "mostly68": 885,
      "mostly2c": 886,
      "233": 887,
      "mostly67": 888,
      "mostly76": 889,
      "mostly64": 890,
      "mostlyd7": 891,
      "mostly87": 892,
      "mostly58": 893,
      "mostly8f": 894,
      "408": 895,
      "231": 896,
      "mostly61": 897,
      "mostly3b": 898,
      "mostlyb2": 899,
      "mostlyaf": 900,
      "mostlyf8": 901,
      "mostly24": 902,
      "mostly97": 903,
      "mostlyb8": 904,
      "mostly6b": 905,
      "mostlyf4": 906,
      "mostlyff": 907,
      "mostlydc": 908,
      "mostly40": 909,
      "mostly07": 910,
      "mostly37": 911,
      "mostly11": 912,
      "mostly8c": 913,
      "mostly89": 914,
      "mostly55": 915,
      "mostly72": 916,
      "mostly79": 917,
      "mostly32": 918,
      "mostly01": 919,
      "mostly6a": 920,
      "mostlyfc": 921,
      "mostlyd3": 922,
      "mostlyda": 923,
      "mostly4f": 924,
      "mostly4d": 925,
      "mostly48": 926,
      "mostly1c": 927,
      "mostlyc0": 928,
      "▁37": 929,
      "mostlyce": 930,
      "mostlyca": 931,
      "mostly13": 932,
      "mostly54": 933,
      "mostly84": 934,
      "▁48": 935,
      "mostly86": 936,
      "mostly21": 937,
      "mostly98": 938,
      "mostly92": 939,
      "mostlya8": 940,
      "mostlye4": 941,
      "mostly33": 942,
      "mostly44": 943,
      "mostlyc4": 944,
      "mostlyd4": 945,
      "mostlyd5": 946,
      "mostlyc6": 947,
      "mostly30": 948,
      "mostly75": 949,
      "mostlyb1": 950,
      "207": 951,
      "mostlye1": 952,
      "mostly53": 953,
      "mostly31": 954,
      "mostlyc7": 955,
      "mostly5e": 956,
      "mostlyaa": 957,
      "mostlye9": 958,
      "mostly51": 959,
      "mostlybf": 960,
      "mostly2a": 961,
      "mostlyb4": 962,
      "mostlye3": 963,
      "mostlyc2": 964,
      "mostlyd2": 965,
      "mostlyee": 966,
      "mostly45": 967,
      "mostly27": 968,
      "mostly2e": 969,
      "mostly0a": 970,
      "mostly6c": 971,
      "mostlyf5": 972,
      "mostly80": 973,
      "22T14": 974,
      "mostly95": 975,
      "mostly8e": 976,
      "mostly34": 977,
      "mostlyc5": 978,
      "mostly7f": 979,
      "mostlya2": 980,
      "307": 981,
      "mostly5d": 982,
      "mostlyf1": 983,
      "mostlye6": 984,
      "mostly36": 985,
      "mostly88": 986,
      "mostly1e": 987,
      "161": 988,
      "mostlyba": 989,
      "mostly9c": 990,
      "mostly7d": 991,
      "mostly05": 992,
      "mostlydb": 993,
      "mostly5f": 994,
      "mostlyb0": 995,
      "mostlyd1": 996,
      "mostlye2": 997,
      "mostly00": 998,
      "mostlybe": 999,
      "mostlycf": 1000,
      "mostly7a": 1001,
      "mostlyae": 1002,
      "T08": 1003,
      "mostly99": 1004,
      "mostly1d": 1005,
      "838": 1006,
      "mostlyed": 1007,
      "mostly26": 1008,
      "mostly3f": 1009,
      "mostly6e": 1010,
      "mostly5a": 1011,
      "mostly7c": 1012,
      "mostlyde": 1013,
      "mostly09": 1014,
      "mostly7e": 1015,
      "417": 1016,
      "mostlydd": 1017,
      "305": 1018,
      "mostly47": 1019,
      "mostlyad": 1020,
      "mostlyd0": 1021,
      "mostlyeb": 1022,
      "mostly5c": 1023,
      "467": 1024,
      "mostlyd6": 1025,
      "▁74": 1026,
      "mostly06": 1027,
      "mostly49": 1028,
      "mostly3d": 1029,
      "mostlyb3": 1030,
      "155": 1031,
      "T00": 1032,
      "mostly4c": 1033,
      "mostly9b": 1034,
      "mostlya0": 1035,
      "mostly28": 1036,
      "mostlybb": 1037,
      "mostly6d": 1038,
      "206": 1039,
      "mostlya5": 1040,
      "165": 1041,
      "mostly2b": 1042,
      "mostlye8": 1043,
      "mostly04": 1044,
      "mostly52": 1045,
      "mostly9d": 1046,
      "mostly14": 1047,
      "mostlyc9": 1048,
      "mostlya7": 1049,
      "mostlye7": 1050,
      "mostly73": 1051,
      "mostlybc": 1052,
      "mostlyac": 1053,
      "mostly9f": 1054,
      "mostly12": 1055,
      "mostly15": 1056,
      "mostly4e": 1057,
      "mostly66": 1058,
      "mostly9a": 1059,
      "mostlyab": 1060,
      "mostly56": 1061,
      "mostlyfa": 1062,
      "mostlyef": 1063,
      "mostly17": 1064,
      "mostly22": 1065,
      "mostlyd8": 1066,
      "306": 1067,
      "mostly08": 1068,
      "157": 1069,
      "mostlycc": 1070,
      "mostly2f": 1071,
      "mostly74": 1072,
      "167": 1073,
      "465": 1074,
      "▁33": 1075,
      "152": 1076,
      "mostly16": 1077,
      "mostly94": 1078,
      "mostly59": 1079,
      "166": 1080,
      "857": 1081,
      "mostlyfd": 1082,
      "mostly8a": 1083,
      "247": 1084,
      "mostly0e": 1085,
      "mostly41": 1086,
      "mostlya1": 1087,
      "235": 1088,
      "mostly91": 1089,
      "mostly35": 1090,
      "mostly83": 1091,
      "mostly4a": 1092,
      "mostly42": 1093,
      "497": 1094,
      "867": 1095,
      "225": 1096,
      "896": 1097,
      "mostly85": 1098,
      "876": 1099,
      "227": 1100,
      "281": 1101,
      "237": 1102,
      "mostly93": 1103,
      "877": 1104,
      "309": 1105,
      "156": 1106,
      "28T09": 1107,
      "817": 1108,
      "415": 1109,
      "25T12": 1110,
      "437": 1111,
      "255": 1112,
      "491": 1113,
      "899": 1114,
      "267": 1115,
      "▁61": 1116,
      "297": 1117,
      "866": 1118,
      "22T01": 1119,
      "496": 1120,
      "308": 1121,
      "855": 1122,
      "295": 1123,
      "285": 1124,
      "287": 1125,
      "895": 1126,
      "226": 1127,
      "835": 1128,
      "163": 1129,
      "856": 1130,
      "183": 1131,
      "315": 1132,
      "865": 1133,
      "245": 1134,
      "276": 1135,
      "495": 1136,
      "837": 1137,
      "897": 1138,
      "217": 1139,
      "249": 1140,
      "317": 1141,
      "487": 1142,
      "169": 1143,
      "296": 1144,
      "257": 1145,
      "239": 1146,
      "365": 1147,
      "875": 1148,
      "261": 1149,
      "▁60": 1150,
      "209": 1151,
      "246": 1152,
      "457": 1153,
      "259": 1154,
      "211": 1155,
      "289": 1156,
      "455": 1157,
      "847": 1158,
      "461": 1159,
      "436": 1160,
      "266": 1161,
      "30T11": 1162,
      "851": 1163,
      "975": 1164,
      "485": 1165,
      "251": 1166,
      "861": 1167,
      "159": 1168,
      "265": 1169,
      "977": 1170,
      "271": 1171,
      "291": 1172,
      "871": 1173,
      "236": 1174,
      "879": 1175,
      "002": 1176,
      "366": 1177,
      "256": 1178,
      "486": 1179,
      "273": 1180,
      "367": 1181,
      "303": 1182,
      "221": 1183,
      "411": 1184,
      "168": 1185,
      "418": 1186,
      "435": 1187,
      "811": 1188,
      "208": 1189,
      "466": 1190,
      "286": 1191,
      "012": 1192,
      "499": 1193,
      "891": 1194,
      "967": 1195,
      "132": 1196,
      "476": 1197,
      "419": 1198,
      "219": 1199,
      "241": 1200,
      "331": 1201,
      "203": 1202,
      "337": 1203,
      "451": 1204,
      "493": 1205,
      "158": 1206,
      "819": 1207,
      "17T12": 1208,
      "248": 1209,
      "413": 1210,
      "898": 1211,
      "966": 1212,
      "469": 1213,
      "477": 1214,
      "▁55": 1215,
      "468": 1216,
      "▁130": 1217,
      "109": 1218,
      "238": 1219,
      "355": 1220,
      "917": 1221,
      "859": 1222,
      "868": 1223,
      "863": 1224,
      "399": 1225,
      "456": 1226,
      "042": 1227,
      "439": 1228,
      "T04": 1229,
      "293": 1230,
      "481": 1231,
      "475": 1232,
      "869": 1233,
      "369": 1234,
      "228": 1235,
      "955": 1236,
      "813": 1237,
      "957": 1238,
      "361": 1239,
      "24T04": 1240,
      "01T12": 1241,
      "22T03": 1242,
      "052": 1243,
      "335": 1244,
      "893": 1245,
      "873": 1246,
      "965": 1247,
      "299": 1248,
      "961": 1249,
      "976": 1250,
      "279": 1251,
      "356": 1252,
      "858": 1253,
      "458": 1254,
      "357": 1255,
      "108": 1256,
      "471": 1257,
      "223": 1258,
      "319": 1259,
      "336": 1260,
      "951": 1261,
      "377": 1262,
      "359": 1263,
      "479": 1264,
      "971": 1265,
      "288": 1266,
      "956": 1267,
      "832": 1268,
      "489": 1269,
      "022": 1270,
      "453": 1271,
      "269": 1272,
      "888": 1273,
      "263": 1274,
      "218": 1275,
      "459": 1276,
      "911": 1277,
      "▁274": 1278,
      "▁101": 1279,
      "28T14": 1280,
      "853": 1281,
      "162": 1282,
      "095": 1283,
      "375": 1284,
      "919": 1285,
      "▁144": 1286,
      "498": 1287,
      "032": 1288,
      "097": 1289,
      "283": 1290,
      "243": 1291,
      "376": 1292,
      "969": 1293,
      "01T09": 1294,
      "463": 1295,
      "979": 1296,
      "318": 1297,
      "878": 1298,
      "268": 1299,
      "298": 1300,
      "488": 1301,
      "978": 1302,
      "311": 1303,
      "278": 1304,
      "253": 1305,
      "818": 1306,
      "062": 1307,
      "▁102": 1308,
      "968": 1309,
      "▁51": 1310,
      "339": 1311,
      "398": 1312,
      "918": 1313,
      "177": 1314,
      "371": 1315,
      "213": 1316,
      "258": 1317,
      "▁103": 1318,
      "393": 1319,
      "072": 1320,
      "▁99": 1321,
      "▁124": 1322,
      "438": 1323,
      "313": 1324,
      "353": 1325,
      "358": 1326,
      "834": 1327,
      "▁104": 1328,
      "351": 1329,
      "▁57": 1330,
      "368": 1331,
      "175": 1332,
      "478": 1333,
      "959": 1334,
      "883": 1335,
      "473": 1336,
      "096": 1337,
      "483": 1338,
      "958": 1339,
      "▁91": 1340,
      "363": 1341,
      "274": 1342,
      "bbf": 1343,
      "333": 1344,
      "338": 1345,
      "bad": 1346,
      "099": 1347,
      "932": 1348,
      "379": 1349,
      "973": 1350,
      "953": 1351,
      "282": 1352,
      "913": 1353,
      "b4b": 1354,
      "b0e": 1355,
      "b77": 1356,
      "378": 1357,
      "089": 1358,
      "bcb": 1359,
      "232": 1360,
      "171": 1361,
      "ada": 1362,
      "b66": 1363,
      "b8e": 1364,
      "▁96": 1365,
      "b8d": 1366,
      "bfe": 1367,
      "bce": 1368,
      "492": 1369,
      "bab": 1370,
      "091": 1371,
      "963": 1372,
      "179": 1373,
      "acb": 1374,
      "b9e": 1375,
      "440": 1376,
      "▁95": 1377,
      "098": 1378,
      "999": 1379,
      "b4f": 1380,
      "373": 1381,
      "▁56": 1382,
      "085": 1383,
      "b55": 1384,
      "▁41": 1385,
      "a77": 1386,
      "aab": 1387,
      "▁97": 1388,
      "304": 1389,
      "173": 1390,
      "24T00": 1391,
      "b0f": 1392,
      "086": 1393,
      "b67": 1394,
      "272": 1395,
      "212": 1396,
      "a4b": 1397,
      "bcd": 1398,
      "b2f": 1399,
      "▁63": 1400,
      "22T04": 1401,
      "292": 1402,
      "b9f": 1403,
      "▁12": 1404,
      "b2e": 1405,
      "004": 1406,
      "222": 1407,
      "a9d": 1408,
      "b57": 1409,
      "bbe": 1410,
      "872": 1411,
      "176": 1412,
      "a0f": 1413,
      "bca": 1414,
      "a2f": 1415,
      "a66": 1416,
      "b65": 1417,
      "bcf": 1418,
      "aae": 1419,
      "b8f": 1420,
      "b2d": 1421,
      "b9d": 1422,
      "119": 1423,
      "a67": 1424,
      "b4e": 1425,
      "b4a": 1426,
      "▁38": 1427,
      "252": 1428,
      "ace": 1429,
      "462": 1430,
      "a8f": 1431,
      "014": 1432,
      "bda": 1433,
      "▁39": 1434,
      "afe": 1435,
      "a4d": 1436,
      "452": 1437,
      "111": 1438,
      "a55": 1439,
      "bbd": 1440,
      "934": 1441,
      "024": 1442,
      "812": 1443,
      "a9f": 1444,
      "044": 1445,
      "178": 1446,
      "862": 1447,
      "bea": 1448,
      "b0d": 1449,
      "362": 1450,
      "a0e": 1451,
      "8fe": 1452,
      "093": 1453,
      "262": 1454,
      "087": 1455,
      "acd": 1456,
      "a57": 1457,
      "a65": 1458,
      "852": 1459,
      "b4d": 1460,
      "412": 1461,
      "a3e": 1462,
      "242": 1463,
      "482": 1464,
      "892": 1465,
      "30T00": 1466,
      "8ce": 1467,
      "a4f": 1468,
      "17T09": 1469,
      "aad": 1470,
      "a3f": 1471,
      "▁62": 1472,
      "054": 1473,
      "081": 1474,
      "acf": 1475,
      "284": 1476,
      "8da": 1477,
      "a4e": 1478,
      "a9e": 1479,
      "254": 1480,
      "aca": 1481,
      "998": 1482,
      "bba": 1483,
      "464": 1484,
      "a8d": 1485,
      "a2d": 1486,
      "113": 1487,
      "a8e": 1488,
      "b4c": 1489,
      "▁80": 1490,
      "854": 1491,
      "118": 1492,
      "a75": 1493,
      "02T18": 1494,
      "27T09": 1495,
      "882": 1496,
      "8cb": 1497,
      "777": 1498,
      "a0d": 1499,
      "9cd": 1500,
      "432": 1501,
      "aaf": 1502,
      "27T12": 1503,
      "666": 1504,
      "9ab": 1505,
      "aea": 1506,
      "074": 1507,
      "10T14": 1508,
      "84b": 1509,
      "8ae": 1510,
      "▁134": 1511,
      "T17": 1512,
      "9ce": 1513,
      "9af": 1514,
      "392": 1515,
      "41e": 1516,
      "8ca": 1517,
      "9fe": 1518,
      "993": 1519,
      "8ad": 1520,
      "90f": 1521,
      "a2e": 1522,
      "494": 1523,
      "154": 1524,
      "8ab": 1525,
      "84e": 1526,
      "80e": 1527,
      "9ae": 1528,
      "9cb": 1529,
      "94b": 1530,
      "9cf": 1531,
      "884": 1532,
      "332": 1533,
      "064": 1534,
      "352": 1535,
      "442": 1536,
      "20e": 1537,
      "675": 1538,
      "9da": 1539,
      "b61": 1540,
      "312": 1541,
      "775": 1542,
      "8af": 1543,
      "665": 1544,
      "90e": 1545,
      "a4c": 1546,
      "b75": 1547,
      "557": 1548,
      "8be": 1549,
      "30e": 1550,
      "164": 1551,
      "894": 1552,
      "234": 1553,
      "8bf": 1554,
      "9bf": 1555,
      "814": 1556,
      "972": 1557,
      "9ad": 1558,
      "94f": 1559,
      "556": 1560,
      "94e": 1561,
      "48f": 1562,
      "26f": 1563,
      "214": 1564,
      "776": 1565,
      "84d": 1566,
      "20f": 1567,
      "29e": 1568,
      "30f": 1569,
      "8ea": 1570,
      "b9a": 1571,
      "244": 1572,
      "874": 1573,
      "8cf": 1574,
      "80f": 1575,
      "80d": 1576,
      "90d": 1577,
      "01e": 1578,
      "01f": 1579,
      "29f": 1580,
      "44e": 1581,
      "962": 1582,
      "21f": 1583,
      "9ba": 1584,
      "a4a": 1585,
      "▁75": 1586,
      "30d": 1587,
      "a3d": 1588,
      "01d": 1589,
      "01T14": 1590,
      "45f": 1591,
      "84f": 1592,
      "8bd": 1593,
      "▁46": 1594,
      "9be": 1595,
      "16e": 1596,
      "657": 1597,
      "45e": 1598,
      "472": 1599,
      "444": 1600,
      "555": 1601,
      "94d": 1602,
      "667": 1603,
      "679": 1604,
      "088": 1605,
      "9bd": 1606,
      "T18": 1607,
      "46e": 1608,
      "41d": 1609,
      "97f": 1610,
      "31d": 1611,
      "9ea": 1612,
      "314": 1613,
      "864": 1614,
      "661": 1615,
      "671": 1616,
      "01T03": 1617,
      "05e": 1618,
      "22f": 1619,
      "89e": 1620,
      "85f": 1621,
      "21e": 1622,
      "8ba": 1623,
      "a0a": 1624,
      "b0a": 1625,
      "294": 1626,
      "20d": 1627,
      "49e": 1628,
      "81d": 1629,
      "b69": 1630,
      "24d": 1631,
      "06e": 1632,
      "b76": 1633,
      "00d": 1634,
      "01T01": 1635,
      "264": 1636,
      "a76": 1637,
      "00f": 1638,
      "05f": 1639,
      "034": 1640,
      "434": 1641,
      "25f": 1642,
      "372": 1643,
      "00e": 1644,
      "24f": 1645,
      "16f": 1646,
      "31f": 1647,
      "28e": 1648,
      "28f": 1649,
      "02f": 1650,
      "651": 1651,
      "84a": 1652,
      "46f": 1653,
      "414": 1654,
      "912": 1655,
      "94c": 1656,
      "b8a": 1657,
      "31e": 1658,
      "10f": 1659,
      "8cd": 1660,
      "a8a": 1661,
      "94a": 1662,
      "484": 1663,
      "87e": 1664,
      "656": 1665,
      "b8c": 1666,
      "15f": 1667,
      "26d": 1668,
      "b51": 1669,
      "b71": 1670,
      "04f": 1671,
      "16d": 1672,
      "86d": 1673,
      "87f": 1674,
      "23d": 1675,
      "42f": 1676,
      "33f": 1677,
      "47e": 1678,
      "25d": 1679,
      "85e": 1680,
      "771": 1681,
      "382": 1682,
      "a51": 1683,
      "02d": 1684,
      "02e": 1685,
      "22e": 1686,
      "a17": 1687,
      "b09": 1688,
      "b56": 1689,
      "89d": 1690,
      "a61": 1691,
      "b35": 1692,
      "334": 1693,
      "96e": 1694,
      "952": 1695,
      "44f": 1696,
      "575": 1697,
      "43d": 1698,
      "83d": 1699,
      "082": 1700,
      "22T00": 1701,
      "85d": 1702,
      "26e": 1703,
      "9ca": 1704,
      "a71": 1705,
      "24e": 1706,
      "06f": 1707,
      "28d": 1708,
      "992": 1709,
      "184": 1710,
      "49d": 1711,
      "25e": 1712,
      "36d": 1713,
      "▁58": 1714,
      "22d": 1715,
      "42d": 1716,
      "03f": 1717,
      "40f": 1718,
      "86f": 1719,
      "364": 1720,
      "576": 1721,
      "474": 1722,
      "a8c": 1723,
      "04e": 1724,
      "81f": 1725,
      "05d": 1726,
      "07e": 1727,
      "29d": 1728,
      "45d": 1729,
      "41f": 1730,
      "10e": 1731,
      "89f": 1732,
      "20c": 1733,
      "33e": 1734,
      "28T05": 1735,
      "39f": 1736,
      "b27": 1737,
      "b7f": 1738,
      "a35": 1739,
      "49f": 1740,
      "192": 1741,
      "03e": 1742,
      "40d": 1743,
      "394": 1744,
      "40e": 1745,
      "23e": 1746,
      "454": 1747,
      "43e": 1748,
      "a56": 1749,
      "b17": 1750,
      "06d": 1751,
      "10d": 1752,
      "83f": 1753,
      "112": 1754,
      "84c": 1755,
      "39d": 1756,
      "83e": 1757,
      "08f": 1758,
      "07d": 1759,
      "T02": 1760,
      "b9c": 1761,
      "676": 1762,
      "01T10": 1763,
      "16c": 1764,
      "95d": 1765,
      "559": 1766,
      "96f": 1767,
      "88e": 1768,
      "102": 1769,
      "b1e": 1770,
      "48e": 1771,
      "81e": 1772,
      "551": 1773,
      "acc": 1774,
      "23f": 1775,
      "964": 1776,
      "91f": 1777,
      "cde": 1778,
      "b37": 1779,
      "cfe": 1780,
      "30c": 1781,
      "07f": 1782,
      "46d": 1783,
      "669": 1784,
      "86e": 1785,
      "779": 1786,
      "b6e": 1787,
      "b6f": 1788,
      "c5f": 1789,
      "▁81": 1790,
      "43f": 1791,
      "613": 1792,
      "a09": 1793,
      "cda": 1794,
      "33d": 1795,
      "88f": 1796,
      "42e": 1797,
      "47f": 1798,
      "954": 1799,
      "914": 1800,
      "91d": 1801,
      "04d": 1802,
      "87d": 1803,
      "974": 1804,
      "698": 1805,
      "a37": 1806,
      "00c": 1807,
      "49c": 1808,
      "48d": 1809,
      "756": 1810,
      "97d": 1811,
      "▁204": 1812,
      "a9a": 1813,
      "cef": 1814,
      "22c": 1815,
      "15e": 1816,
      "25T03": 1817,
      "36f": 1818,
      "778": 1819,
      "b3e": 1820,
      "▁76": 1821,
      "21d": 1822,
      "01T11": 1823,
      "03d": 1824,
      "88d": 1825,
      "cae": 1826,
      "9aa": 1827,
      "15d": 1828,
      "10T12": 1829,
      "27e": 1830,
      "663": 1831,
      "38e": 1832,
      "c7f": 1833,
      "9bb": 1834,
      "▁42": 1835,
      "24c": 1836,
      "38f": 1837,
      "619": 1838,
      "85c": 1839,
      "87c": 1840,
      "773": 1841,
      "b5f": 1842,
      "95e": 1843,
      "36e": 1844,
      "97e": 1845,
      "39e": 1846,
      "b98": 1847,
      "fee": 1848,
      "91e": 1849,
      "678": 1850,
      "b5d": 1851,
      "25c": 1852,
      "673": 1853,
      "084": 1854,
      "▁200": 1855,
      "8bc": 1856,
      "abf": 1857,
      "519": 1858,
      "c6e": 1859,
      "c1e": 1860,
      "86c": 1861,
      "fef": 1862,
      "41c": 1863,
      "8aa": 1864,
      "b68": 1865,
      "▁98": 1866,
      "571": 1867,
      "909": 1868,
      "b79": 1869,
      "96d": 1870,
      "44d": 1871,
      "653": 1872,
      "08e": 1873,
      "26c": 1874,
      "44c": 1875,
      "cff": 1876,
      "b99": 1877,
      "cdf": 1878,
      "101": 1879,
      "cbd": 1880,
      "47d": 1881,
      "28c": 1882,
      "553": 1883,
      "b1d": 1884,
      "T06": 1885,
      "27f": 1886,
      "172": 1887,
      "618": 1888,
      "bde": 1889,
      "cdd": 1890,
      "46c": 1891,
      "caf": 1892,
      "b1f": 1893,
      "b63": 1894,
      "▁32": 1895,
      "658": 1896,
      "659": 1897,
      "693": 1898,
      "b6d": 1899,
      "b3f": 1900,
      "cbe": 1901,
      "354": 1902,
      "08c": 1903,
      "384": 1904,
      "c7e": 1905,
      "9cc": 1906,
      "cee": 1907,
      "15c": 1908,
      "eaf": 1909,
      "b7d": 1910,
      "b59": 1911,
      "24T06": 1912,
      "b3d": 1913,
      "8cc": 1914,
      "9bc": 1915,
      "b01": 1916,
      "adf": 1917,
      "c1f": 1918,
      "0be": 1919,
      "04c": 1920,
      "10c": 1921,
      "ced": 1922,
      "43c": 1923,
      "39c": 1924,
      "c6f": 1925,
      "dad": 1926,
      "27d": 1927,
      "42c": 1928,
      "05c": 1929,
      "07c": 1930,
      "29c": 1931,
      "40c": 1932,
      "558": 1933,
      "93e": 1934,
      "03c": 1935,
      "48c": 1936,
      "36c": 1937,
      "21c": 1938,
      "b5e": 1939,
      "a59": 1940,
      "b78": 1941,
      "02c": 1942,
      "0157": 1943,
      "a9c": 1944,
      "82e": 1945,
      "89c": 1946,
      "8bb": 1947,
      "000": 1948,
      "47c": 1949,
      "24T07": 1950,
      "c7d": 1951,
      "b11": 1952,
      "160": 1953,
      "31c": 1954,
      "25T10": 1955,
      "95f": 1956,
      "▁89": 1957,
      "abd": 1958,
      "c5d": 1959,
      "a98": 1960,
      "83c": 1961,
      "809": 1962,
      "a79": 1963,
      "a78": 1964,
      "▁140": 1965,
      "45c": 1966,
      "4ff": 1967,
      "82f": 1968,
      "c6d": 1969,
      "80a": 1970,
      "90a": 1971,
      "0666": 1972,
      "4de": 1973,
      "a11": 1974,
      "▁49": 1975,
      "35e": 1976,
      "eae": 1977,
      "86a": 1978,
      "93f": 1979,
      "0109": 1980,
      "759": 1981,
      "cbc": 1982,
      "150": 1983,
      "b7e": 1984,
      "c1d": 1985,
      "a99": 1986,
      "0757": 1987,
      "abe": 1988,
      "81c": 1989,
      "cfd": 1990,
      "b3c": 1991,
      "131": 1992,
      "b73": 1993,
      "cbf": 1994,
      "97c": 1995,
      "bff": 1996,
      "b53": 1997,
      "0687": 1998,
      "08d": 1999,
      "c5e": 2000,
      "020": 2001,
      "23c": 2002,
      "937": 2003,
      "b19": 2004,
      "0057": 2005,
      "dae": 2006,
      "040": 2007,
      "4dd": 2008,
      "82d": 2009,
      "a69": 2010,
      "a19": 2011,
      "a68": 2012,
      "a63": 2013,
      "b5c": 2014,
      "0fe": 2015,
      "010": 2016,
      "daf": 2017,
      "91c": 2018,
      "763": 2019,
      "070": 2020,
      "add": 2021,
      "95c": 2022,
      "bfd": 2023,
      "33c": 2024,
      "27c": 2025,
      "0ae": 2026,
      "▁53": 2027,
      "bdf": 2028,
      "0037": 2029,
      "518": 2030,
      "bae": 2031,
      "b6c": 2032,
      "a13": 2033,
      "b06": 2034,
      "ade": 2035,
      "668": 2036,
      "0055": 2037,
      "88c": 2038,
      "17T01": 2039,
      "4df": 2040,
      "baf": 2041,
      "▁300": 2042,
      "4ee": 2043,
      "cdc": 2044,
      "30a": 2045,
      "0402": 2046,
      "719": 2047,
      "b7c": 2048,
      "a73": 2049,
      "0148": 2050,
      "02T06": 2051,
      "96c": 2052,
      "4cd": 2053,
      "513": 2054,
      "38c": 2055,
      "bdd": 2056,
      "62e": 2057,
      "290": 2058,
      "35f": 2059,
      "713": 2060,
      "b18": 2061,
      "0226": 2062,
      "01c": 2063,
      "0128": 2064,
      "0555": 2065,
      "31T03": 2066,
      "0295": 2067,
      "0126": 2068,
      "0517": 2069,
      "23a": 2070,
      "0004": 2071,
      "dac": 2072,
      "0695": 2073,
      "568": 2074,
      "22T09": 2075,
      "c5c": 2076,
      "c1c": 2077,
      "103": 2078,
      "a58": 2079,
      "0107": 2080,
      "fed": 2081,
      "▁1459": 2082,
      "▁1961": 2083,
      "0287": 2084,
      "0587": 2085,
      "ce5": 2086,
      "▁1734": 2087,
      "4bd": 2088,
      "4be": 2089,
      "753": 2090,
      "758": 2091,
      "0409": 2092,
      "48b": 2093,
      "4ef": 2094,
      "4cf": 2095,
      "bee": 2096,
      "fec": 2097,
      "0397": 2098,
      "4ed": 2099,
      "b13": 2100,
      "0346": 2101,
      "0317": 2102,
      "0709": 2103,
      "280": 2104,
      "85a": 2105,
      "21a": 2106,
      "▁79": 2107,
      "0029": 2108,
      "0186": 2109,
      "0787": 2110,
      "32f": 2111,
      "b58": 2112,
      "0015": 2113,
      "0035": 2114,
      "0155": 2115,
      "0504": 2116,
      "16a": 2117,
      "0615": 2118,
      "0637": 2119,
      "38d": 2120,
      "b1c": 2121,
      "c6c": 2122,
      "28T04": 2123,
      "4fd": 2124,
      "718": 2125,
      "32d": 2126,
      "0af": 2127,
      "0549": 2128,
      "0689": 2129,
      "ca5": 2130,
      "cac": 2131,
      "93d": 2132,
      "0066": 2133,
      "0289": 2134,
      "0277": 2135,
      "0149": 2136,
      "0586": 2137,
      "0595": 2138,
      "07a": 2139,
      "0725": 2140,
      "▁1501": 2141,
      "0624": 2142,
      "4bf": 2143,
      "▁86": 2144,
      "0033": 2145,
      "0048": 2146,
      "0228": 2147,
      "0597": 2148,
      "bcc": 2149,
      "0bf": 2150,
      "0235": 2151,
      "0257": 2152,
      "0417": 2153,
      "0516": 2154,
      "0366": 2155,
      "0795": 2156,
      "▁1744": 2157,
      "25a": 2158,
      "994": 2159,
      "bef": 2160,
      "▁1325": 2161,
      "a53": 2162,
      "0229": 2163,
      "0196": 2164,
      "16b": 2165,
      "98e": 2166,
      "▁1915": 2167,
      "▁1441": 2168,
      "▁1427": 2169,
      "0cf": 2170,
      "0566": 2171,
      "0736": 2172,
      "0777": 2173,
      "▁1770": 2174,
      "22a": 2175,
      "40a": 2176,
      "27b": 2177,
      "▁1463": 2178,
      "0047": 2179,
      "0086": 2180,
      "0189": 2181,
      "30b": 2182,
      "05a": 2183,
      "0585": 2184,
      "0746": 2185,
      "0755": 2186,
      "15b": 2187,
      "092": 2188,
      "0ef": 2189,
      "▁1424": 2190,
      "▁1452": 2191,
      "0133": 2192,
      "▁1649": 2193,
      "▁1494": 2194,
      "▁1854": 2195,
      "▁85": 2196,
      "0028": 2197,
      "0255": 2198,
      "▁1409": 2199,
      "0545": 2200,
      "0557": 2201,
      "20a": 2202,
      "0395": 2203,
      "0747": 2204,
      "0696": 2205,
      "ad5": 2206,
      "4af": 2207,
      "563": 2208,
      "cd7": 2209,
      "bb7": 2210,
      "▁1938": 2211,
      "▁1953": 2212,
      "▁1499": 2213,
      "▁1813": 2214,
      "0041": 2215,
      "0026": 2216,
      "0067": 2217,
      "0236": 2218,
      "0237": 2219,
      "0437": 2220,
      "0541": 2221,
      "03a": 2222,
      "▁1776": 2223,
      "43a": 2224,
      "09d": 2225,
      "89b": 2226,
      "26a": 2227,
      "eac": 2228,
      "cc7": 2229,
      "▁1482": 2230,
      "0045": 2231,
      "0017": 2232,
      "0248": 2233,
      "0285": 2234,
      "da6": 2235,
      "da7": 2236,
      "0357": 2237,
      "0766": 2238,
      "▁1758": 2239,
      "768": 2240,
      "ded": 2241,
      "▁1425": 2242,
      "▁1335": 2243,
      "▁1451": 2244,
      "0025": 2245,
      "0027": 2246,
      "0096": 2247,
      "0249": 2248,
      "0247": 2249,
      "0146": 2250,
      "0185": 2251,
      "050": 2252,
      "0509": 2253,
      "0728": 2254,
      "0765": 2255,
      "▁1536": 2256,
      "▁1567": 2257,
      "31a": 2258,
      "52f": 2259,
      "12f": 2260,
      "▁1348": 2261,
      "▁1841": 2262,
      "c7c": 2263,
      "▁1406": 2264,
      "187": 2265,
      "b0c": 2266,
      "0296": 2267,
      "0165": 2268,
      "0416": 2269,
      "0449": 2270,
      "0446": 2271,
      "0348": 2272,
      "0785": 2273,
      "T13": 2274,
      "06c": 2275,
      "0617": 2276,
      "89a": 2277,
      "ca7": 2278,
      "42a": 2279,
      "▁1397": 2280,
      "▁1920": 2281,
      "▁1952": 2282,
      "00a": 2283,
      "0187": 2284,
      "0485": 2285,
      "0565": 2286,
      "0341": 2287,
      "0396": 2288,
      "0789": 2289,
      "▁1547": 2290,
      "▁1557": 2291,
      "0645": 2292,
      "0636": 2293,
      "28T01": 2294,
      "44a": 2295,
      "17e": 2296,
      "4fc": 2297,
      "772": 2298,
      "982": 2299,
      "92f": 2300,
      "▁1851": 2301,
      "▁1871": 2302,
      "0135": 2303,
      "0136": 2304,
      "0487": 2305,
      "0529": 2306,
      "0548": 2307,
      "▁1628": 2308,
      "▁1642": 2309,
      "▁1651": 2310,
      "▁1507": 2311,
      "▁1545": 2312,
      "▁1510": 2313,
      "▁1544": 2314,
      "0648": 2315,
      "09e": 2316,
      "ca6": 2317,
      "bac": 2318,
      "cc6": 2319,
      "▁1826": 2320,
      "▁1903": 2321,
      "▁1939": 2322,
      "▁1352": 2323,
      "▁1855": 2324,
      "▁1475": 2325,
      "104": 2326,
      "0087": 2327,
      "0065": 2328,
      "0116": 2329,
      "0427": 2330,
      "cec": 2331,
      "▁1617": 2332,
      "▁1728": 2333,
      "▁1550": 2334,
      "37e": 2335,
      "▁1816": 2336,
      "▁1949": 2337,
      "▁1946": 2338,
      "▁1375": 2339,
      "▁1418": 2340,
      "185": 2341,
      "0497": 2342,
      "0457": 2343,
      "0515": 2344,
      "0525": 2345,
      "0527": 2346,
      "0526": 2347,
      "0577": 2348,
      "cb6": 2349,
      "▁1627": 2350,
      "▁1566": 2351,
      "10T11": 2352,
      "25b": 2353,
      "37f": 2354,
      "4ae": 2355,
      "aef": 2356,
      "▁1349": 2357,
      "▁1440": 2358,
      "▁1353": 2359,
      "▁1487": 2360,
      "▁1875": 2361,
      "▁1384": 2362,
      "0217": 2363,
      "0166": 2364,
      "0466": 2365,
      "0589": 2366,
      "0367": 2367,
      "07b": 2368,
      "0729": 2369,
      "▁1540": 2370,
      "▁1582": 2371,
      "0697": 2372,
      "0657": 2373,
      "ab5": 2374,
      "48a": 2375,
      "ad7": 2376,
      "82c": 2377,
      "92d": 2378,
      "cf5": 2379,
      "▁1942": 2380,
      "▁1421": 2381,
      "▁1374": 2382,
      "▁1454": 2383,
      "▁1954": 2384,
      "▁1968": 2385,
      "▁1863": 2386,
      "▁1869": 2387,
      "▁1919": 2388,
      "▁1888": 2389,
      "0089": 2390,
      "0225": 2391,
      "0197": 2392,
      "▁1932": 2393,
      "0448": 2394,
      "0435": 2395,
      "20b": 2396,
      "0347": 2397,
      "0749": 2398,
      "▁1677": 2399,
      "▁1731": 2400,
      "▁1767": 2401,
      "▁1708": 2402,
      "▁1580": 2403,
      "0647": 2404,
      "310": 2405,
      "abc": 2406,
      "43b": 2407,
      "87b": 2408,
      "aff": 2409,
      "0de": 2410,
      "ccc": 2411,
      "▁1430": 2412,
      "▁1882": 2413,
      "0024": 2414,
      "0085": 2415,
      "0209": 2416,
      "0175": 2417,
      "0489": 2418,
      "0535": 2419,
      "0325": 2420,
      "0745": 2421,
      "▁1689": 2422,
      "▁1612": 2423,
      "▁1716": 2424,
      "▁1718": 2425,
      "49a": 2426,
      "46a": 2427,
      "10a": 2428,
      "87a": 2429,
      "36a": 2430,
      "▁1326": 2431,
      "▁1941": 2432,
      "▁1448": 2433,
      "0245": 2434,
      "0137": 2435,
      "▁132": 2436,
      "0441": 2437,
      "0415": 2438,
      "0426": 2439,
      "0467": 2440,
      "0531": 2441,
      "0735": 2442,
      "▁1609": 2443,
      "▁1688": 2444,
      "▁1575": 2445,
      "▁1594": 2446,
      "870": 2447,
      "cf7": 2448,
      "▁1327": 2449,
      "▁1837": 2450,
      "▁1377": 2451,
      "▁1814": 2452,
      "▁1817": 2453,
      "b41": 2454,
      "0016": 2455,
      "0215": 2456,
      "0115": 2457,
      "0717": 2458,
      "▁1798": 2459,
      "▁1756": 2460,
      "▁1713": 2461,
      "▁1505": 2462,
      "▁1518": 2463,
      "0655": 2464,
      "0667": 2465,
      "99e": 2466,
      "bed": 2467,
      "aee": 2468,
      "bbc": 2469,
      "▁1343": 2470,
      "▁1909": 2471,
      "dee": 2472,
      "▁1402": 2473,
      "▁1417": 2474,
      "▁52": 2475,
      "0009": 2476,
      "02a": 2477,
      "0177": 2478,
      "0425": 2479,
      "0547": 2480,
      "0537": 2481,
      "cb7": 2482,
      "0328": 2483,
      "▁1602": 2484,
      "▁1601": 2485,
      "▁1625": 2486,
      "▁1621": 2487,
      "▁1613": 2488,
      "▁1710": 2489,
      "0677": 2490,
      "12e": 2491,
      "▁1341": 2492,
      "▁1908": 2493,
      "▁1950": 2494,
      "▁1962": 2495,
      "▁1390": 2496,
      "0081": 2497,
      "0036": 2498,
      "0216": 2499,
      "0387": 2500,
      "0724": 2501,
      "▁1655": 2502,
      "▁1671": 2503,
      "▁1673": 2504,
      "▁1674": 2505,
      "▁1788": 2506,
      "▁1526": 2507,
      "0675": 2508,
      "cfc": 2509,
      "▁1945": 2510,
      "▁1415": 2511,
      "▁1884": 2512,
      "0095": 2513,
      "0129": 2514,
      "0125": 2515,
      "0424": 2516,
      "0389": 2517,
      "0355": 2518,
      "▁1636": 2519,
      "▁1644": 2520,
      "▁1683": 2521,
      "▁1663": 2522,
      "▁1503": 2523,
      "▁1528": 2524,
      "▁1592": 2525,
      "0665": 2526,
      "35d": 2527,
      "36b": 2528,
      "42b": 2529,
      "▁1345": 2530,
      "▁1391": 2531,
      "▁1828": 2532,
      "▁1881": 2533,
      "▁1930": 2534,
      "▁1445": 2535,
      "▁1446": 2536,
      "▁1361": 2537,
      "▁1481": 2538,
      "b24": 2539,
      "0031": 2540,
      "0265": 2541,
      "0127": 2542,
      "0524": 2543,
      "ce7": 2544,
      "▁1681": 2545,
      "▁1656": 2546,
      "▁1705": 2547,
      "▁1707": 2548,
      "▁1785": 2549,
      "0629": 2550,
      "4c7": 2551,
      "▁1921": 2552,
      "▁1422": 2553,
      "▁1423": 2554,
      "▁1355": 2555,
      "▁1456": 2556,
      "▁1957": 2557,
      "▁1862": 2558,
      "▁1892": 2559,
      "▁1474": 2560,
      "0147": 2561,
      "0496": 2562,
      "0596": 2563,
      "0386": 2564,
      "0377": 2565,
      "0365": 2566,
      "0786": 2567,
      "▁1624": 2568,
      "▁1799": 2569,
      "▁1765": 2570,
      "▁1780": 2571,
      "▁1500": 2572,
      "▁1539": 2573,
      "094": 2574,
      "▁1806": 2575,
      "▁1339": 2576,
      "▁1918": 2577,
      "0533": 2578,
      "0741": 2579,
      "▁1606": 2580,
      "▁1638": 2581,
      "▁1661": 2582,
      "▁1659": 2583,
      "▁1720": 2584,
      "▁1781": 2585,
      "▁1502": 2586,
      "▁1530": 2587,
      "▁1585": 2588,
      "▁1595": 2589,
      "▁1559": 2590,
      "0635": 2591,
      "46b": 2592,
      "25T00": 2593,
      "11f": 2594,
      "bd5": 2595,
      "180": 2596,
      "52e": 2597,
      "0df": 2598,
      "▁1395": 2599,
      "▁1803": 2600,
      "▁1829": 2601,
      "▁1848": 2602,
      "▁1843": 2603,
      "▁1923": 2604,
      "▁1944": 2605,
      "a6f": 2606,
      "a5e": 2607,
      "a1e": 2608,
      "▁1368": 2609,
      "▁1334": 2610,
      "▁1897": 2611,
      "188": 2612,
      "0117": 2613,
      "0429": 2614,
      "0349": 2615,
      "▁1630": 2616,
      "▁1633": 2617,
      "▁1691": 2618,
      "▁1682": 2619,
      "▁1619": 2620,
      "▁1672": 2621,
      "▁1694": 2622,
      "▁1711": 2623,
      "▁1504": 2624,
      "▁1586": 2625,
      "0646": 2626,
      "860": 2627,
      "4bc": 2628,
      "17d": 2629,
      "4e7": 2630,
      "afd": 2631,
      "8dd": 2632,
      "▁1396": 2633,
      "▁1807": 2634,
      "▁1350": 2635,
      "▁1965": 2636,
      "▁1857": 2637,
      "▁1819": 2638,
      "0ea": 2639,
      "0049": 2640,
      "0046": 2641,
      "0077": 2642,
      "0536": 2643,
      "0324": 2644,
      "0316": 2645,
      "0345": 2646,
      "29a": 2647,
      "▁1641": 2648,
      "▁1635": 2649,
      "▁1654": 2650,
      "▁1702": 2651,
      "▁1701": 2652,
      "▁1748": 2653,
      "▁1763": 2654,
      "▁1714": 2655,
      "▁1531": 2656,
      "▁1527": 2657,
      "▁1593": 2658,
      "▁1573": 2659,
      "22b": 2660,
      "81b": 2661,
      "37d": 2662,
      "0dd": 2663,
      "cc5": 2664,
      "▁1810": 2665,
      "▁1429": 2666,
      "a1f": 2667,
      "▁1333": 2668,
      "▁1437": 2669,
      "▁1453": 2670,
      "▁1455": 2671,
      "▁1465": 2672,
      "▁1879": 2673,
      "▁1473": 2674,
      "0097": 2675,
      "0477": 2676,
      "0326": 2677,
      "0748": 2678,
      "▁1660": 2679,
      "▁1768": 2680,
      "▁1774": 2681,
      "▁1574": 2682,
      "▁1560": 2683,
      "26b": 2684,
      "51e": 2685,
      "ba7": 2686,
      "▁1844": 2687,
      "▁1839": 2688,
      "▁1852": 2689,
      "▁1467": 2690,
      "▁1872": 2691,
      "▁1883": 2692,
      "▁87": 2693,
      "00b": 2694,
      "0436": 2695,
      "0336": 2696,
      "0731": 2697,
      "▁1657": 2698,
      "▁1669": 2699,
      "▁1676": 2700,
      "▁1658": 2701,
      "▁1704": 2702,
      "▁1741": 2703,
      "▁1766": 2704,
      "▁1777": 2705,
      "▁1782": 2706,
      "▁1759": 2707,
      "▁1772": 2708,
      "▁1597": 2709,
      "▁1590": 2710,
      "0628": 2711,
      "23b": 2712,
      "96a": 2713,
      "95a": 2714,
      "880": 2715,
      "4f6": 2716,
      "92e": 2717,
      "▁1864": 2718,
      "▁1382": 2719,
      "da5": 2720,
      "0737": 2721,
      "0797": 2722,
      "0767": 2723,
      "▁1695": 2724,
      "▁1697": 2725,
      "▁1608": 2726,
      "▁1614": 2727,
      "▁1725": 2728,
      "▁1786": 2729,
      "▁1751": 2730,
      "▁1794": 2731,
      "33a": 2732,
      "▁1589": 2733,
      "▁1535": 2734,
      "▁1555": 2735,
      "▁1519": 2736,
      "▁1532": 2737,
      "▁1570": 2738,
      "060": 2739,
      "0616": 2740,
      "49b": 2741,
      "460": 2742,
      "40b": 2743,
      "09f": 2744,
      "85b": 2745,
      "99d": 2746,
      "67f": 2747,
      "61d": 2748,
      "▁1383": 2749,
      "▁1830": 2750,
      "▁1827": 2751,
      "▁1889": 2752,
      "▁1943": 2753,
      "▁1401": 2754,
      "▁1958": 2755,
      "▁1493": 2756,
      "▁1856": 2757,
      "▁1878": 2758,
      "▁1891": 2759,
      "▁1476": 2760,
      "▁1317": 2761,
      "▁1811": 2762,
      "▁1912": 2763,
      "204": 2764,
      "▁117": 2765,
      "0327": 2766,
      "0796": 2767,
      "▁1620": 2768,
      "▁1650": 2769,
      "▁1679": 2770,
      "▁1632": 2771,
      "▁1680": 2772,
      "▁1723": 2773,
      "▁1568": 2774,
      "0626": 2775,
      "ad6": 2776,
      "77f": 2777,
      "bdc": 2778,
      "bc7": 2779,
      "▁1321": 2780,
      "▁1808": 2781,
      "▁1426": 2782,
      "▁1376": 2783,
      "▁1966": 2784,
      "▁1914": 2785,
      "0297": 2786,
      "▁116": 2787,
      "▁142": 2788,
      "ce6": 2789,
      "0315": 2790,
      "0716": 2791,
      "▁1755": 2792,
      "▁1761": 2793,
      "▁1775": 2794,
      "▁1587": 2795,
      "▁1523": 2796,
      "▁1508": 2797,
      "81a": 2798,
      "97a": 2799,
      "17T11": 2800,
      "▁1385": 2801,
      "▁1833": 2802,
      "▁1900": 2803,
      "▁1433": 2804,
      "▁1436": 2805,
      "▁1393": 2806,
      "▁1880": 2807,
      "c3e": 2808,
      "0233": 2809,
      "0281": 2810,
      "0145": 2811,
      "cb5": 2812,
      "▁1648": 2813,
      "▁1686": 2814,
      "▁1699": 2815,
      "▁1730": 2816,
      "▁1521": 2817,
      "▁1577": 2818,
      "▁1562": 2819,
      "0685": 2820,
      "890": 2821,
      "44b": 2822,
      "17f": 2823,
      "bd6": 2824,
      "cd5": 2825,
      "8ee": 2826,
      "▁1347": 2827,
      "▁1809": 2828,
      "▁1885": 2829,
      "▁1842": 2830,
      "2dd": 2831,
      "▁1940": 2832,
      "a5f": 2833,
      "80c": 2834,
      "▁1354": 2835,
      "▁1356": 2836,
      "▁1358": 2837,
      "▁1359": 2838,
      "▁1951": 2839,
      "▁1967": 2840,
      "▁1466": 2841,
      "▁1398": 2842,
      "0431": 2843,
      "0475": 2844,
      "0546": 2845,
      "03b": 2846,
      "0329": 2847,
      "0337": 2848,
      "▁1722": 2849,
      "▁1752": 2850,
      "▁1509": 2851,
      "0641": 2852,
      "0625": 2853,
      "21b": 2854,
      "ba6": 2855,
      "50f": 2856,
      "18e": 2857,
      "0ff": 2858,
      "▁1328": 2859,
      "▁1849": 2860,
      "▁1931": 2861,
      "▁1491": 2862,
      "0266": 2863,
      "▁1834": 2864,
      "▁1666": 2865,
      "▁1703": 2866,
      "▁1724": 2867,
      "▁1709": 2868,
      "▁1735": 2869,
      "▁1742": 2870,
      "▁1757": 2871,
      "▁1538": 2872,
      "▁1512": 2873,
      "0609": 2874,
      "ab6": 2875,
      "47b": 2876,
      "27a": 2877,
      "4d7": 2878,
      "4dc": 2879,
      "83a": 2880,
      "50d": 2881,
      "32e": 2882,
      "▁1824": 2883,
      "▁1847": 2884,
      "▁1924": 2885,
      "▁1916": 2886,
      "▁1926": 2887,
      "▁1443": 2888,
      "▁1492": 2889,
      "▁1496": 2890,
      "▁1480": 2891,
      "▁1868": 2892,
      "▁1896": 2893,
      "02b": 2894,
      "0224": 2895,
      "0241": 2896,
      "0455": 2897,
      "0567": 2898,
      "▁1739": 2899,
      "▁1533": 2900,
      "▁1516": 2901,
      "▁1579": 2902,
      "▁1564": 2903,
      "▁1514": 2904,
      "10T09": 2905,
      "86b": 2906,
      "72e": 2907,
      "0ee": 2908,
      "▁1821": 2909,
      "▁1351": 2910,
      "▁1434": 2911,
      "▁1439": 2912,
      "▁1858": 2913,
      "▁1462": 2914,
      "▁1812": 2915,
      "0279": 2916,
      "0167": 2917,
      "▁1838": 2918,
      "0447": 2919,
      "0576": 2920,
      "0715": 2921,
      "▁1662": 2922,
      "▁1634": 2923,
      "▁1746": 2924,
      "▁1789": 2925,
      "▁1717": 2926,
      "▁1792": 2927,
      "▁1542": 2928,
      "▁1565": 2929,
      "▁1571": 2930,
      "▁1558": 2931,
      "0649": 2932,
      "ad1": 2933,
      "55f": 2934,
      "ca1": 2935,
      "984": 2936,
      "8ed": 2937,
      "62f": 2938,
      "12d": 2939,
      "▁1831": 2940,
      "▁1887": 2941,
      "▁1956": 2942,
      "▁1497": 2943,
      "▁1468": 2944,
      "▁1485": 2945,
      "▁93": 2946,
      "0227": 2947,
      "0131": 2948,
      "0445": 2949,
      "0495": 2950,
      "fe6": 2951,
      "0335": 2952,
      "▁1623": 2953,
      "▁1700": 2954,
      "▁1787": 2955,
      "▁1754": 2956,
      "▁1790": 2957,
      "▁1581": 2958,
      "50e": 2959,
      "bfc": 2960,
      "bec": 2961,
      "32c": 2962,
      "▁1324": 2963,
      "▁1835": 2964,
      "2de": 2965,
      "2ed": 2966,
      "▁1336": 2967,
      "▁1898": 2968,
      "0bb": 2969,
      "0231": 2970,
      "da1": 2971,
      "0124": 2972,
      "04a": 2973,
      "0575": 2974,
      "0331": 2975,
      "0726": 2976,
      "▁1604": 2977,
      "▁1750": 2978,
      "▁1753": 2979,
      "▁1541": 2980,
      "▁1591": 2981,
      "▁1551": 2982,
      "▁1572": 2983,
      "88a": 2984,
      "69d": 2985,
      "98d": 2986,
      "be6": 2987,
      "72d": 2988,
      "52d": 2989,
      "▁1340": 2990,
      "▁1836": 2991,
      "▁1405": 2992,
      "▁1431": 2993,
      "▁1447": 2994,
      "▁1332": 2995,
      "▁1483": 2996,
      "▁1486": 2997,
      "▁1890": 2998,
      "▁1894": 2999,
      "▁1394": 3000,
      "▁1818": 3001,
      "▁1911": 3002,
      "▁1913": 3003,
      "▁1917": 3004,
      "▁77": 3005,
      "0727": 3006,
      "▁1610": 3007,
      "▁1626": 3008,
      "▁1678": 3009,
      "▁1729": 3010,
      "▁1779": 3011,
      "▁1546": 3012,
      "▁1599": 3013,
      "▁1553": 3014,
      "692": 3015,
      "69f": 3016,
      "▁1805": 3017,
      "▁1840": 3018,
      "▁1825": 3019,
      "▁1403": 3020,
      "▁1369": 3021,
      "▁1960": 3022,
      "▁1464": 3023,
      "▁1860": 3024,
      "▁34": 3025,
      "0581": 3026,
      "ce1": 3027,
      "▁1749": 3028,
      "▁1520": 3029,
      "▁1506": 3030,
      "45a": 3031,
      "4f7": 3032,
      "98f": 3033,
      "93c": 3034,
      "▁1937": 3035,
      "def": 3036,
      "a5d": 3037,
      "▁1362": 3038,
      "▁1366": 3039,
      "0023": 3040,
      "0211": 3041,
      "0381": 3042,
      "0375": 3043,
      "▁1605": 3044,
      "▁1646": 3045,
      "▁1692": 3046,
      "▁1747": 3047,
      "▁1795": 3048,
      "▁1548": 3049,
      "▁1543": 3050,
      "28a": 3051,
      "4a6": 3052,
      "99f": 3053,
      "72f": 3054,
      "aed": 3055,
      "▁1323": 3056,
      "▁1801": 3057,
      "▁1846": 3058,
      "▁1906": 3059,
      "▁1363": 3060,
      "▁1331": 3061,
      "▁1413": 3062,
      "▁1490": 3063,
      "▁1859": 3064,
      "▁1469": 3065,
      "▁1873": 3066,
      "▁1444": 3067,
      "301": 3068,
      "0333": 3069,
      "▁1698": 3070,
      "▁1653": 3071,
      "▁1727": 3072,
      "▁1712": 3073,
      "▁1549": 3074,
      "▁1569": 3075,
      "▁1598": 3076,
      "0627": 3077,
      "25T01": 3078,
      "4e6": 3079,
      "39a": 3080,
      "11e": 3081,
      "69e": 3082,
      "8df": 3083,
      "▁1845": 3084,
      "▁1907": 3085,
      "▁1922": 3086,
      "▁1411": 3087,
      "▁1489": 3088,
      "▁1870": 3089,
      "▁1899": 3090,
      "0aa": 3091,
      "b2a": 3092,
      "b2c": 3093,
      "▁54": 3094,
      "0056": 3095,
      "0286": 3096,
      "0465": 3097,
      "▁1622": 3098,
      "▁1745": 3099,
      "▁1783": 3100,
      "▁1793": 3101,
      "▁1517": 3102,
      "▁1563": 3103,
      "47a": 3104,
      "61f": 3105,
      "▁1379": 3106,
      "▁1365": 3107,
      "▁1338": 3108,
      "▁1457": 3109,
      "▁1964": 3110,
      "▁1461": 3111,
      "▁1392": 3112,
      "0ba": 3113,
      "0246": 3114,
      "0122": 3115,
      "0111": 3116,
      "▁123": 3117,
      "▁1832": 3118,
      "▁1615": 3119,
      "▁1743": 3120,
      "▁1791": 3121,
      "▁1588": 3122,
      "▁1576": 3123,
      "▁1534": 3124,
      "0633": 3125,
      "35c": 3126,
      "4b6": 3127,
      "99c": 3128,
      "512": 3129,
      "38a": 3130,
      "cd6": 3131,
      "0ed": 3132,
      "▁1329": 3133,
      "▁1322": 3134,
      "▁1346": 3135,
      "▁1800": 3136,
      "▁1404": 3137,
      "a7e": 3138,
      "a1d": 3139,
      "▁1378": 3140,
      "▁1414": 3141,
      "▁1495": 3142,
      "▁1498": 3143,
      "▁1470": 3144,
      "▁1479": 3145,
      "0267": 3146,
      "0181": 3147,
      "0486": 3148,
      "▁1696": 3149,
      "▁1670": 3150,
      "▁1784": 3151,
      "31T14": 3152,
      "4d5": 3153,
      "08b": 3154,
      "612": 3155,
      "61e": 3156,
      "8de": 3157,
      "bc5": 3158,
      "▁1388": 3159,
      "2df": 3160,
      "▁1407": 3161,
      "▁1360": 3162,
      "▁1969": 3163,
      "▁1478": 3164,
      "129": 3165,
      "0528": 3166,
      "▁1647": 3167,
      "▁1684": 3168,
      "▁1726": 3169,
      "▁1796": 3170,
      "▁1797": 3171,
      "▁1773": 3172,
      "33b": 3173,
      "▁1583": 3174,
      "0686": 3175,
      "15a": 3176,
      "4b7": 3177,
      "▁1802": 3178,
      "fff": 3179,
      "▁1435": 3180,
      "▁1458": 3181,
      "▁1319": 3182,
      "▁1442": 3183,
      "05b": 3184,
      "fe5": 3185,
      "▁1639": 3186,
      "▁1675": 3187,
      "▁1561": 3188,
      "45b": 3189,
      "10b": 3190,
      "adc": 3191,
      "17c": 3192,
      "4c6": 3193,
      "52c": 3194,
      "▁1804": 3195,
      "▁1822": 3196,
      "▁1948": 3197,
      "▁1371": 3198,
      "▁1955": 3199,
      "▁1484": 3200,
      "▁1865": 3201,
      "▁1866": 3202,
      "▁1472": 3203,
      "▁1477": 3204,
      "0cb": 3205,
      "0221": 3206,
      "▁1738": 3207,
      "▁1537": 3208,
      "0691": 3209,
      "0699": 3210,
      "4ec": 3211,
      "bf7": 3212,
      "bd7": 3213,
      "cd1": 3214,
      "bb6": 3215,
      "8ef": 3216,
      "▁1330": 3217,
      "▁1320": 3218,
      "▁1316": 3219,
      "▁1389": 3220,
      "▁1386": 3221,
      "▁1925": 3222,
      "▁1364": 3223,
      "▁1419": 3224,
      "▁1450": 3225,
      "▁1959": 3226,
      "▁94": 3227,
      "0195": 3228,
      "▁115": 3229,
      "0591": 3230,
      "0556": 3231,
      "▁1706": 3232,
      "▁1769": 3233,
      "174": 3234,
      "4f5": 3235,
      "573": 3236,
      "134": 3237,
      "cf3": 3238,
      "b5b": 3239,
      "▁1344": 3240,
      "▁1367": 3241,
      "▁1410": 3242,
      "0091": 3243,
      "0141": 3244,
      "0121": 3245,
      "04b": 3246,
      "0428": 3247,
      "ce3": 3248,
      "07T12": 3249,
      "▁1668": 3250,
      "▁1771": 3251,
      "▁1778": 3252,
      "▁1764": 3253,
      "41a": 3254,
      "250": 3255,
      "4cc": 3256,
      "▁1886": 3257,
      "▁1904": 3258,
      "ffd": 3259,
      "▁1337": 3260,
      "▁1861": 3261,
      "▁1895": 3262,
      "▁1399": 3263,
      "0176": 3264,
      "▁121": 3265,
      "▁1934": 3266,
      "▁1732": 3267,
      "240": 3268,
      "▁1552": 3269,
      "0621": 3270,
      "95b": 3271,
      "55e": 3272,
      "38b": 3273,
      "b7a": 3274,
      "cc1": 3275,
      "▁1387": 3276,
      "▁1342": 3277,
      "▁1823": 3278,
      "▁1947": 3279,
      "▁1910": 3280,
      "a7f": 3281,
      "▁1432": 3282,
      "▁1877": 3283,
      "0043": 3284,
      "0075": 3285,
      "0275": 3286,
      "0456": 3287,
      "0759": 3288,
      "▁1607": 3289,
      "▁1645": 3290,
      "▁1640": 3291,
      "▁1652": 3292,
      "31b": 3293,
      "ab1": 3294,
      "374": 3295,
      "76e": 3296,
      "▁1381": 3297,
      "▁1901": 3298,
      "▁1905": 3299,
      "▁1936": 3300,
      "▁1449": 3301,
      "ddf": 3302,
      "dfd": 3303,
      "▁1357": 3304,
      "▁1874": 3305,
      "▁1318": 3306,
      "186": 3307,
      "0059": 3308,
      "0171": 3309,
      "0385": 3310,
      "0321": 3311,
      "0781": 3312,
      "07T09": 3313,
      "▁1618": 3314,
      "▁1736": 3315,
      "▁1522": 3316,
      "▁1554": 3317,
      "65e": 3318,
      "67d": 3319,
      "08a": 3320,
      "514": 3321,
      "bf6": 3322,
      "92c": 3323,
      "▁1902": 3324,
      "ddd": 3325,
      "▁1867": 3326,
      "0443": 3327,
      "0776": 3328,
      "▁1603": 3329,
      "▁1665": 3330,
      "▁1578": 3331,
      "4e5": 3332,
      "11d": 3333,
      "578": 3334,
      "62d": 3335,
      "▁1438": 3336,
      "0191": 3337,
      "0156": 3338,
      "▁1616": 3339,
      "▁1760": 3340,
      "24a": 3341,
      "06a": 3342,
      "0631": 3343,
      "0681": 3344,
      "ab7": 3345,
      "28b": 3346,
      "37c": 3347,
      "91b": 3348,
      "390": 3349,
      "39b": 3350,
      "79d": 3351,
      "18f": 3352,
      "62c": 3353,
      "c1a": 3354,
      "▁1412": 3355,
      "▁1315": 3356,
      "0021": 3357,
      "01b": 3358,
      "0159": 3359,
      "▁1408": 3360,
      "fe1": 3361,
      "▁1600": 3362,
      "▁1631": 3363,
      "91a": 3364,
      "67e": 3365,
      "380": 3366,
      "73e": 3367,
      "b7b": 3368,
      "b6b": 3369,
      "▁1933": 3370,
      "▁1928": 3371,
      "a7d": 3372,
      "a6d": 3373,
      "▁1370": 3374,
      "▁1372": 3375,
      "▁1488": 3376,
      "▁1471": 3377,
      "▁122": 3378,
      "0356": 3379,
      "0733": 3380,
      "0775": 3381,
      "29b": 3382,
      "▁1667": 3383,
      "▁1733": 3384,
      "▁1715": 3385,
      "▁1721": 3386,
      "▁1524": 3387,
      "0656": 3388,
      "ea7": 3389,
      "9ef": 3390,
      "12c": 3391,
      "▁1815": 3392,
      "▁1373": 3393,
      "▁1853": 3394,
      "▁1460": 3395,
      "193": 3396,
      "0143": 3397,
      "▁1685": 3398,
      "▁1719": 3399,
      "▁1762": 3400,
      "▁1515": 3401,
      "▁1511": 3402,
      "ba5": 3403,
      "19T09": 3404,
      "af7": 3405,
      "8fd": 3406,
      "9dd": 3407,
      "c6b": 3408,
      "▁1963": 3409,
      "a2c": 3410,
      "0291": 3411,
      "0299": 3412,
      "01a": 3413,
      "▁1611": 3414,
      "▁1664": 3415,
      "▁1525": 3416,
      "▁1556": 3417,
      "450": 3418,
      "114": 3419,
      "be7": 3420,
      "53f": 3421,
      "8ff": 3422,
      "▁1428": 3423,
      "300": 3424,
      "3de": 3425,
      "0223": 3426,
      "0491": 3427,
      "▁1687": 3428,
      "24b": 3429,
      "0639": 3430,
      "41b": 3431,
      "4b1": 3432,
      "65f": 3433,
      "59f": 3434,
      "bf1": 3435,
      "63e": 3436,
      "bb5": 3437,
      "▁1820": 3438,
      "▁1927": 3439,
      "▁1935": 3440,
      "▁1380": 3441,
      "2cf": 3442,
      "0179": 3443,
      "0451": 3444,
      "▁1643": 3445,
      "▁1637": 3446,
      "▁1690": 3447,
      "▁1513": 3448,
      "09c": 3449,
      "270": 3450,
      "260": 3451,
      "96b": 3452,
      "360": 3453,
      "4d6": 3454,
      "▁1420": 3455,
      "216": 3456,
      "da3": 3457,
      "0323": 3458,
      "0723": 3459,
      "0751": 3460,
      "ea5": 3461,
      "57e": 3462,
      "aec": 3463,
      "b6a": 3464,
      "189": 3465,
      "0011": 3466,
      "0068": 3467,
      "0271": 3468,
      "0161": 3469,
      "0119": 3470,
      "0561": 3471,
      "▁1740": 3472,
      "▁1529": 3473,
      "76f": 3474,
      "be5": 3475,
      "63f": 3476,
      "9df": 3477,
      "b3a": 3478,
      "▁1850": 3479,
      "135": 3480,
      "0079": 3481,
      "0139": 3482,
      "0343": 3483,
      "0399": 3484,
      "06b": 3485,
      "ea6": 3486,
      "97b": 3487,
      "caa": 3488,
      "66f": 3489,
      "9ee": 3490,
      "b1a": 3491,
      "ff5": 3492,
      "▁1400": 3493,
      "eef": 3494,
      "0276": 3495,
      "cea": 3496,
      "▁1596": 3497,
      "4b5": 3498,
      "83b": 3499,
      "579": 3500,
      "0fd": 3501,
      "▁1929": 3502,
      "▁1893": 3503,
      "▁92": 3504,
      "0022": 3505,
      "0069": 3506,
      "0076": 3507,
      "0471": 3508,
      "0461": 3509,
      "0521": 3510,
      "cb3": 3511,
      "0659": 3512,
      "ab3": 3513,
      "88b": 3514,
      "4a5": 3515,
      "bb1": 3516,
      "9de": 3517,
      "b1b": 3518,
      "0a5": 3519,
      "a6c": 3520,
      "0298": 3521,
      "0481": 3522,
      "0543": 3523,
      "fe7": 3524,
      "0791": 3525,
      "0761": 3526,
      "▁1629": 3527,
      "0643": 3528,
      "0661": 3529,
      "77e": 3530,
      "c5b": 3531,
      "▁1876": 3532,
      "2aa": 3533,
      "0061": 3534,
      "0539": 3535,
      "0719": 3536,
      "▁1693": 3537,
      "77d": 3538,
      "bc1": 3539,
      "dd7": 3540,
      "90c": 3541,
      "2af": 3542,
      "0256": 3543,
      "0422": 3544,
      "0519": 3545,
      "0379": 3546,
      "0769": 3547,
      "▁1737": 3548,
      "0651": 3549,
      "0671": 3550,
      "98c": 3551,
      "75f": 3552,
      "79f": 3553,
      "b5a": 3554,
      "dec": 3555,
      "▁1416": 3556,
      "0138": 3557,
      "cb1": 3558,
      "4ac": 3559,
      "4c1": 3560,
      "57f": 3561,
      "bf5": 3562,
      "53e": 3563,
      "78e": 3564,
      "ae7": 3565,
      "a6e": 3566,
      "0da": 3567,
      "▁202": 3568,
      "0058": 3569,
      "0258": 3570,
      "0421": 3571,
      "0499": 3572,
      "0476": 3573,
      "0579": 3574,
      "0578": 3575,
      "ce9": 3576,
      "0351": 3577,
      "0369": 3578,
      "0743": 3579,
      "4f1": 3580,
      "080": 3581,
      "bc6": 3582,
      "2ef": 3583,
      "de7": 3584,
      "0cd": 3585,
      "215": 3586,
      "c2f": 3587,
      "0123": 3588,
      "0199": 3589,
      "0433": 3590,
      "0599": 3591,
      "0551": 3592,
      "0376": 3593,
      "0722": 3594,
      "0711": 3595,
      "▁1584": 3596,
      "66d": 3597,
      "68f": 3598,
      "79e": 3599,
      "0a7": 3600,
      "0ac": 3601,
      "c7a": 3602,
      "201": 3603,
      "0239": 3604,
      "0523": 3605,
      "0571": 3606,
      "bd1": 3607,
      "9ed": 3608,
      "0f5": 3609,
      "ffc": 3610,
      "de6": 3611,
      "127": 3612,
      "0039": 3613,
      "0051": 3614,
      "0071": 3615,
      "0151": 3616,
      "0756": 3617,
      "0623": 3618,
      "ca3": 3619,
      "cf6": 3620,
      "bb3": 3621,
      "0ec": 3622,
      "3ef": 3623,
      "935": 3624,
      "a3c": 3625,
      "0269": 3626,
      "0339": 3627,
      "55c": 3628,
      "65d": 3629,
      "572": 3630,
      "71e": 3631,
      "50c": 3632,
      "19T12": 3633,
      "532": 3634,
      "53d": 3635,
      "cf1": 3636,
      "0d7": 3637,
      "0e7": 3638,
      "3ed": 3639,
      "0169": 3640,
      "58e": 3641,
      "78f": 3642,
      "18d": 3643,
      "0ab": 3644,
      "0158": 3645,
      "0488": 3646,
      "4f3": 3647,
      "4a7": 3648,
      "4c5": 3649,
      "59d": 3650,
      "0f7": 3651,
      "0307": 3652,
      "a2a": 3653,
      "a3a": 3654,
      "0259": 3655,
      "fe3": 3656,
      "0318": 3657,
      "0779": 3658,
      "970": 3659,
      "66e": 3660,
      "75e": 3661,
      "9ff": 3662,
      "c7b": 3663,
      "c6a": 3664,
      "c1b": 3665,
      "2be": 3666,
      "0261": 3667,
      "ea1": 3668,
      "4e1": 3669,
      "662": 3670,
      "19d": 3671,
      "13e": 3672,
      "cd3": 3673,
      "▁201": 3674,
      "c5a": 3675,
      "dfc": 3676,
      "0188": 3677,
      "0411": 3678,
      "0522": 3679,
      "0568": 3680,
      "cba": 3681,
      "0319": 3682,
      "0739": 3683,
      "adb": 3684,
      "ca9": 3685,
      "71f": 3686,
      "56f": 3687,
      "73f": 3688,
      "bc3": 3689,
      "de5": 3690,
      "dd6": 3691,
      "2ae": 3692,
      "0423": 3693,
      "ceb": 3694,
      "0359": 3695,
      "0608": 3696,
      "0676": 3697,
      "0619": 3698,
      "55d": 3699,
      "4b3": 3700,
      "58f": 3701,
      "9fd": 3702,
      "0a6": 3703,
      "0078": 3704,
      "0251": 3705,
      "0419": 3706,
      "0511": 3707,
      "0371": 3708,
      "0622": 3709,
      "410": 3710,
      "554": 3711,
      "672": 3712,
      "13f": 3713,
      "0e5": 3714,
      "31T01": 3715,
      "948": 3716,
      "T07": 3717,
      "▁88": 3718,
      "0243": 3719,
      "ad3": 3720,
      "552": 3721,
      "17T03": 3722,
      "51d": 3723,
      "694": 3724,
      "632": 3725,
      "0305": 3726,
      "137": 3727,
      "0518": 3728,
      "0778": 3729,
      "4fa": 3730,
      "4d1": 3731,
      "cfa": 3732,
      "aa5": 3733,
      "0dc": 3734,
      "2d7": 3735,
      "2fd": 3736,
      "0306": 3737,
      "0721": 3738,
      "ab9": 3739,
      "28T10": 3740,
      "25T11": 3741,
      "4a1": 3742,
      "57d": 3743,
      "59e": 3744,
      "bd3": 3745,
      "92b": 3746,
      "0019": 3747,
      "0208": 3748,
      "aba": 3749,
      "4c3": 3750,
      "51f": 3751,
      "ff7": 3752,
      "df6": 3753,
      "fea": 3754,
      "0391": 3755,
      "470": 3756,
      "774": 3757,
      "cfb": 3758,
      "2ee": 3759,
      "ff6": 3760,
      "b9b": 3761,
      "0178": 3762,
      "0438": 3763,
      "0468": 3764,
      "950": 3765,
      "56d": 3766,
      "af5": 3767,
      "2e6": 3768,
      "100": 3769,
      "c8e": 3770,
      "▁83": 3771,
      "0099": 3772,
      "0439": 3773,
      "0479": 3774,
      "0569": 3775,
      "0611": 3776,
      "75d": 3777,
      "72c": 3778,
      "b3b": 3779,
      "2d5": 3780,
      "2ff": 3781,
      "1fd": 3782,
      "0573": 3783,
      "0322": 3784,
      "0688": 3785,
      "ad9": 3786,
      "850": 3787,
      "960": 3788,
      "19f": 3789,
      "cdb": 3790,
      "cf9": 3791,
      "0d5": 3792,
      "0d6": 3793,
      "dd5": 3794,
      "eee": 3795,
      "5ed": 3796,
      "191": 3797,
      "2da": 3798,
      "0130": 3799,
      "0168": 3800,
      "0498": 3801,
      "0559": 3802,
      "0311": 3803,
      "0361": 3804,
      "0638": 3805,
      "61c": 3806,
      "bfa": 3807,
      "be1": 3808,
      "63d": 3809,
      "ae6": 3810,
      "afc": 3811,
      "0fc": 3812,
      "0408": 3813,
      "0598": 3814,
      "0708": 3815,
      "0630": 3816,
      "56e": 3817,
      "68e": 3818,
      "cd9": 3819,
      "0f1": 3820,
      "cc3": 3821,
      "0a1": 3822,
      "ddc": 3823,
      "efd": 3824,
      "0108": 3825,
      "0198": 3826,
      "▁119": 3827,
      "0478": 3828,
      "05T09": 3829,
      "eaa": 3830,
      "17T10": 3831,
      "4fb": 3832,
      "4d3": 3833,
      "4db": 3834,
      "ba1": 3835,
      "58d": 3836,
      "8fc": 3837,
      "0418": 3838,
      "0588": 3839,
      "0799": 3840,
      "T15": 3841,
      "0678": 3842,
      "abb": 3843,
      "ea3": 3844,
      "69c": 3845,
      "13d": 3846,
      "3ee": 3847,
      "a5c": 3848,
      "df7": 3849,
      "849": 3850,
      "0288": 3851,
      "0118": 3852,
      "0771": 3853,
      "0658": 3854,
      "73d": 3855,
      "be3": 3856,
      "eed": 3857,
      "3dc": 3858,
      "▁82": 3859,
      "▁84": 3860,
      "0273": 3861,
      "▁109": 3862,
      "▁118": 3863,
      "0459": 3864,
      "02T17": 3865,
      "0508": 3866,
      "0738": 3867,
      "66c": 3868,
      "67c": 3869,
      "9c7": 3870,
      "df1": 3871,
      "0ce": 3872,
      "0222": 3873,
      "0458": 3874,
      "cb9": 3875,
      "480": 3876,
      "614": 3877,
      "76d": 3878,
      "0f6": 3879,
      "1ed": 3880,
      "7ed": 3881,
      "0469": 3882,
      "0669": 3883,
      "0698": 3884,
      "4a3": 3885,
      "534": 3886,
      "9f5": 3887,
      "2fc": 3888,
      "ff3": 3889,
      "316": 3890,
      "0098": 3891,
      "0283": 3892,
      "04T12": 3893,
      "0679": 3894,
      "ad8": 3895,
      "654": 3896,
      "aa1": 3897,
      "a8b": 3898,
      "a9b": 3899,
      "b8b": 3900,
      "▁40": 3901,
      "0063": 3902,
      "da8": 3903,
      "▁120": 3904,
      "0530": 3905,
      "0398": 3906,
      "10T05": 3907,
      "4bb": 3908,
      "77c": 3909,
      "752": 3910,
      "aa6": 3911,
      "0e1": 3912,
      "a7c": 3913,
      "df5": 3914,
      "eec": 3915,
      "0219": 3916,
      "0268": 3917,
      "0278": 3918,
      "dab": 3919,
      "02T16": 3920,
      "0668": 3921,
      "10T01": 3922,
      "28T03": 3923,
      "11c": 3924,
      "bf3": 3925,
      "cf8": 3926,
      "2d6": 3927,
      "a0c": 3928,
      "0013": 3929,
      "0113": 3930,
      "4c9": 3931,
      "baa": 3932,
      "ae5": 3933,
      "8dc": 3934,
      "0d1": 3935,
      "2dc": 3936,
      "2f7": 3937,
      "2ab": 3938,
      "▁78": 3939,
      "0193": 3940,
      "feb": 3941,
      "cbb": 3942,
      "19e": 3943,
      "92a": 3944,
      "0053": 3945,
      "0018": 3946,
      "0218": 3947,
      "daa": 3948,
      "▁108": 3949,
      "0538": 3950,
      "0368": 3951,
      "0798": 3952,
      "0768": 3953,
      "4ba": 3954,
      "65c": 3955,
      "ba3": 3956,
      "82a": 3957,
      "732": 3958,
      "50a": 3959,
      "18c": 3960,
      "cd8": 3961,
      "8ec": 3962,
      "8f7": 3963,
      "12a": 3964,
      "8c7": 3965,
      "ee7": 3966,
      "0bc": 3967,
      "123": 3968,
      "117": 3969,
      "0088": 3970,
      "0453": 3971,
      "0338": 3972,
      "0763": 3973,
      "25T08": 3974,
      "ca8": 3975,
      "734": 3976,
      "8a6": 3977,
      "2e7": 3978,
      "2f5": 3979,
      "3d5": 3980,
      "7fd": 3981,
      "2bd": 3982,
      "0038": 3983,
      "0553": 3984,
      "0388": 3985,
      "0753": 3986,
      "4a8": 3987,
      "71d": 3988,
      "93b": 3989,
      "8f6": 3990,
      "8c5": 3991,
      "3d7": 3992,
      "0bd": 3993,
      "4a9": 3994,
      "652": 3995,
      "762": 3996,
      "cc8": 3997,
      "8ac": 3998,
      "121": 3999,
      "0263": 4000,
      "cb8": 4001,
      "07T11": 4002,
      "4e3": 4003,
      "754": 4004,
      "68d": 4005,
      "78d": 4006,
      "af6": 4007,
      "8e5": 4008,
      "8e7": 4009,
      "8a7": 4010,
      "8c6": 4011,
      "df3": 4012,
      "125": 4013,
      "126": 4014,
      "197": 4015,
      "0583": 4016,
      "0358": 4017,
      "0378": 4018,
      "4089": 4019,
      "99a": 4020,
      "93a": 4021,
      "76c": 4022,
      "9f7": 4023,
      "aa7": 4024,
      "3fd": 4025,
      "6fd": 4026,
      "122": 4027,
      "▁113": 4028,
      "0558": 4029,
      "51c": 4030,
      "50b": 4031,
      "bfb": 4032,
      "58c": 4033,
      "8d7": 4034,
      "0e6": 4035,
      "a1c": 4036,
      "2a3": 4037,
      "230": 4038,
      "0008": 4039,
      "0183": 4040,
      "0593": 4041,
      "ce8": 4042,
      "52a": 4043,
      "aac": 4044,
      "cc9": 4045,
      "9a5": 4046,
      "1ec": 4047,
      "6ef": 4048,
      "0430": 4049,
      "15T12": 4050,
      "4e9": 4051,
      "0f3": 4052,
      "327": 4053,
      "885": 4054,
      "0073": 4055,
      "0238": 4056,
      "0293": 4057,
      "da9": 4058,
      "0758": 4059,
      "24T17": 4060,
      "0653": 4061,
      "24T08": 4062,
      "8a1": 4063,
      "3f5": 4064,
      "5fc": 4065,
      "2ba": 4066,
      "0030": 4067,
      "0463": 4068,
      "0618": 4069,
      "4087": 4070,
      "4eb": 4071,
      "56c": 4072,
      "19c": 4073,
      "794": 4074,
      "13c": 4075,
      "8e6": 4076,
      "9ec": 4077,
      "8a5": 4078,
      "80b": 4079,
      "385": 4080,
      "0353": 4081,
      "0783": 4082,
      "ea9": 4083,
      "4445": 4084,
      "4447": 4085,
      "574": 4086,
      "75c": 4087,
      "ae1": 4088,
      "bbb": 4089,
      "9e7": 4090,
      "9a7": 4091,
      "▁180": 4092,
      "3fc": 4093,
      "2ad": 4094,
      "0473": 4095,
      "0313": 4096,
      "0730": 4097,
      "16T12": 4098,
      "4096": 4099,
      "592": 4100,
      "59c": 4101,
      "2e5": 4102,
      "9c5": 4103,
      "5fd": 4104,
      "083": 4105,
      "831": 4106,
      "0230": 4107,
      "0483": 4108,
      "0718": 4109,
      "0713": 4110,
      "4095": 4111,
      "23T02": 4112,
      "4448": 4113,
      "4426": 4114,
      "57c": 4115,
      "792": 4116,
      "9e5": 4117,
      "12b": 4118,
      "9a6": 4119,
      "2f6": 4120,
      "ff1": 4121,
      "dd3": 4122,
      "3d6": 4123,
      "6ed": 4124,
      "▁277": 4125,
      "2bf": 4126,
      "2cd": 4127,
      "0083": 4128,
      "fe9": 4129,
      "0330": 4130,
      "0683": 4131,
      "4416": 4132,
      "4b9": 4133,
      "4d9": 4134,
      "65a": 4135,
      "71c": 4136,
      "af1": 4137,
      "8d6": 4138,
      "32a": 4139,
      "9d5": 4140,
      "9d7": 4141,
      "de3": 4142,
      "7f5": 4143,
      "6f6": 4144,
      "2cb": 4145,
      "0084": 4146,
      "fe8": 4147,
      "674": 4148,
      "beb": 4149,
      "79c": 4150,
      "ae3": 4151,
      "de1": 4152,
      "829": 4153,
      "0373": 4154,
      "4085": 4155,
      "37a": 4156,
      "4431": 4157,
      "4427": 4158,
      "764": 4159,
      "72b": 4160,
      "9dc": 4161,
      "2ec": 4162,
      "ee5": 4163,
      "b0b": 4164,
      "▁107": 4165,
      "05T12": 4166,
      "4aa": 4167,
      "98b": 4168,
      "9f6": 4169,
      "b60": 4170,
      "9ac": 4171,
      "ffa": 4172,
      "3ec": 4173,
      "a5a": 4174,
      "1e7": 4175,
      "7d6": 4176,
      "116": 4177,
      "345": 4178,
      "836": 4179,
      "0173": 4180,
      "0788": 4181,
      "490": 4182,
      "4686": 4183,
      "712": 4184,
      "73c": 4185,
      "9e6": 4186,
      "0d3": 4187,
      "9c6": 4188,
      "a7b": 4189,
      "2c3": 4190,
      "1dc": 4191,
      "107": 4192,
      "124": 4193,
      "4667": 4194,
      "4406": 4195,
      "4215": 4196,
      "63c": 4197,
      "62b": 4198,
      "b14": 4199,
      "0a3": 4200,
      "7ec": 4201,
      "2bc": 4202,
      "b2b": 4203,
      "664": 4204,
      "4224": 4205,
      "77a": 4206,
      "72a": 4207,
      "af3": 4208,
      "afb": 4209,
      "bb9": 4210,
      "9d3": 4211,
      "9f3": 4212,
      "0e3": 4213,
      "4315": 4214,
      "195": 4215,
      "0094": 4216,
      "0774": 4217,
      "4941": 4218,
      "4837": 4219,
      "4429": 4220,
      "82b": 4221,
      "634": 4222,
      "52b": 4223,
      "9fc": 4224,
      "3e1": 4225,
      "ef7": 4226,
      "6fc": 4227,
      "0309": 4228,
      "▁106": 4229,
      "0493": 4230,
      "0773": 4231,
      "4804": 4232,
      "4646": 4233,
      "26T12": 4234,
      "35a": 4235,
      "62a": 4236,
      "3f7": 4237,
      "205": 4238,
      "325": 4239,
      "848": 4240,
      "0093": 4241,
      "0253": 4242,
      "0213": 4243,
      "0513": 4244,
      "0613": 4245,
      "4817": 4246,
      "4c8": 4247,
      "bf9": 4248,
      "bd9": 4249,
      "194": 4250,
      "bb8": 4251,
      "32b": 4252,
      "dfb": 4253,
      "5dc": 4254,
      "0ad": 4255,
      "0ca": 4256,
      "2ce": 4257,
      "0234": 4258,
      "0383": 4259,
      "0764": 4260,
      "4509": 4261,
      "4863": 4262,
      "4649": 4263,
      "28T08": 4264,
      "4b2": 4265,
      "4f9": 4266,
      "99b": 4267,
      "4216": 4268,
      "11b": 4269,
      "684": 4270,
      "ae9": 4271,
      "8d1": 4272,
      "▁216": 4273,
      "90b": 4274,
      "ac3": 4275,
      "ef5": 4276,
      "▁284": 4277,
      "▁194": 4278,
      "4997": 4279,
      "ab8": 4280,
      "4724": 4281,
      "4731": 4282,
      "35b": 4283,
      "67a": 4284,
      "68c": 4285,
      "784": 4286,
      "9d6": 4287,
      "0db": 4288,
      "2d1": 4289,
      "ff9": 4290,
      "ee6": 4291,
      "7e7": 4292,
      "4337": 4293,
      "4911": 4294,
      "4696": 4295,
      "4186": 4296,
      "4428": 4297,
      "4423": 4298,
      "4b8": 4299,
      "4f8": 4300,
      "8fb": 4301,
      "5f5": 4302,
      "4227": 4303,
      "128": 4304,
      "200": 4305,
      "2fe": 4306,
      "f6e": 4307,
      "0594": 4308,
      "0393": 4309,
      "0793": 4310,
      "▁179": 4311,
      "0663": 4312,
      "4735": 4313,
      "4755": 4314,
      "4666": 4315,
      "562": 4316,
      "bf8": 4317,
      "bdb": 4318,
      "78c": 4319,
      "8f3": 4320,
      "bc9": 4321,
      "5d6": 4322,
      "fdc": 4323,
      "4485": 4324,
      "0cc": 4325,
      "148": 4326,
      "0114": 4327,
      "0673": 4328,
      "4967": 4329,
      "4688": 4330,
      "4122": 4331,
      "4115": 4332,
      "4155": 4333,
      "4395": 4334,
      "4376": 4335,
      "69a": 4336,
      "be9": 4337,
      "bd8": 4338,
      "584": 4339,
      "afa": 4340,
      "8d5": 4341,
      "0f9": 4342,
      "7f6": 4343,
      "7f7": 4344,
      "5ec": 4345,
      "3a3": 4346,
      "4465": 4347,
      "▁114": 4348,
      "4988": 4349,
      "4738": 4350,
      "4185": 4351,
      "350": 4352,
      "594": 4353,
      "ffb": 4354,
      "6dc": 4355,
      "30T08": 4356,
      "4255": 4357,
      "381": 4358,
      "0163": 4359,
      "0702": 4360,
      "0614": 4361,
      "4529": 4362,
      "4524": 4363,
      "4557": 4364,
      "4887": 4365,
      "4877": 4366,
      "4867": 4367,
      "4657": 4368,
      "4693": 4369,
      "4367": 4370,
      "09b": 4371,
      "4405": 4372,
      "9e3": 4373,
      "8fa": 4374,
      "0a9": 4375,
      "▁271": 4376,
      "4294": 4377,
      "925": 4378,
      "0574": 4379,
      "cb2": 4380,
      "0602": 4381,
      "4549": 4382,
      "4517": 4383,
      "4866": 4384,
      "4838": 4385,
      "4629": 4386,
      "4109": 4387,
      "4137": 4388,
      "4328": 4389,
      "4378": 4390,
      "4444": 4391,
      "17b": 4392,
      "4231": 4393,
      "0fb": 4394,
      "2d3": 4395,
      "1e6": 4396,
      "4455": 4397,
      "4437": 4398,
      "889": 4399,
      "886": 4400,
      "996": 4401,
      "0074": 4402,
      "▁111": 4403,
      "▁193": 4404,
      "0674": 4405,
      "4533": 4406,
      "4968": 4407,
      "4847": 4408,
      "4876": 4409,
      "4606": 4410,
      "4611": 4411,
      "4195": 4412,
      "4118": 4413,
      "4081": 4414,
      "4363": 4415,
      "4c8d": 4416,
      "53c": 4417,
      "aaa": 4418,
      "efc": 4419,
      "4277": 4420,
      "f5e": 4421,
      "0563": 4422,
      "0384": 4423,
      "4597": 4424,
      "4558": 4425,
      "4881": 4426,
      "4702": 4427,
      "4743": 4428,
      "4635": 4429,
      "4135": 4430,
      "4098": 4431,
      "4329": 4432,
      "4323": 4433,
      "4377": 4434,
      "09a": 4435,
      "09T12": 4436,
      "4421": 4437,
      "4d8": 4438,
      "6e7": 4439,
      "5d7": 4440,
      "4286": 4441,
      "2ea": 4442,
      "329": 4443,
      "347": 4444,
      "0064": 4445,
      "0363": 4446,
      "0620": 4447,
      "4541": 4448,
      "4924": 4449,
      "4819": 4450,
      "4703": 4451,
      "4788": 4452,
      "4156": 4453,
      "4316": 4454,
      "4346": 4455,
      "4387": 4456,
      "4424": 4457,
      "4446": 4458,
      "4425": 4459,
      "55a": 4460,
      "4233": 4461,
      "3e7": 4462,
      "3f1": 4463,
      "1f5": 4464,
      "6e6": 4465,
      "7d7": 4466,
      "5d5": 4467,
      "▁270": 4468,
      "4257": 4469,
      "4307": 4470,
      "01T05": 4471,
      "02T07": 4472,
      "0714": 4473,
      "24T18": 4474,
      "4568": 4475,
      "4996": 4476,
      "4807": 4477,
      "4823": 4478,
      "4896": 4479,
      "4781": 4480,
      "4625": 4481,
      "4422": 4482,
      "61a": 4483,
      "aa9": 4484,
      "b70": 4485,
      "9a3": 4486,
      "c60": 4487,
      "a6a": 4488,
      "dfa": 4489,
      "70c": 4490,
      "138": 4491,
      "395": 4492,
      "0174": 4493,
      "0464": 4494,
      "0414": 4495,
      "04T09": 4496,
      "0693": 4497,
      "4598": 4498,
      "4935": 4499,
      "4821": 4500,
      "4859": 4501,
      "4749": 4502,
      "4752": 4503,
      "4609": 4504,
      "4626": 4505,
      "4656": 4506,
      "4674": 4507,
      "4175": 4508,
      "4158": 4509,
      "4097": 4510,
      "17a": 4511,
      "18b": 4512,
      "af9": 4513,
      "aa3": 4514,
      "8a3": 4515,
      "8c1": 4516,
      "de9": 4517,
      "dd9": 4518,
      "a7a": 4519,
      "a1b": 4520,
      "ef6": 4521,
      "6d7": 4522,
      "4487": 4523,
      "4265": 4524,
      "986": 4525,
      "0153": 4526,
      "0664": 4527,
      "4585": 4528,
      "4575": 4529,
      "4915": 4530,
      "4969": 4531,
      "4886": 4532,
      "4853": 4533,
      "4729": 4534,
      "4751": 4535,
      "4775": 4536,
      "4776": 4537,
      "47fa": 4538,
      "4349": 4539,
      "4341": 4540,
      "4398": 4541,
      "4394": 4542,
      "11a": 4543,
      "714": 4544,
      "ba8": 4545,
      "1e5": 4546,
      "6e5": 4547,
      "4335": 4548,
      "▁235": 4549,
      "326": 4550,
      "916": 4551,
      "d1f": 4552,
      "da2": 4553,
      "0564": 4554,
      "0364": 4555,
      "45fa": 4556,
      "4928": 4557,
      "4986": 4558,
      "4995": 4559,
      "4978": 4560,
      "4848": 4561,
      "4898": 4562,
      "4858": 4563,
      "4717": 4564,
      "4719": 4565,
      "473e": 4566,
      "4695": 4567,
      "4699": 4568,
      "4653": 4569,
      "4086": 4570,
      "4345": 4571,
      "4327": 4572,
      "4361": 4573,
      "ea8": 4574,
      "98a": 4575,
      "8f5": 4576,
      "0f8": 4577,
      "0e9": 4578,
      "▁229": 4579,
      "3e5": 4580,
      "3e6": 4581,
      "eeb": 4582,
      "7fc": 4583,
      "7dc": 4584,
      "4165": 4585,
      "2bb": 4586,
      "324": 4587,
      "828": 4588,
      "e5e": 4589,
      "▁192": 4590,
      "0474": 4591,
      "0494": 4592,
      "4591": 4593,
      "4511": 4594,
      "4901": 4595,
      "4977": 4596,
      "4822": 4597,
      "4827": 4598,
      "4879": 4599,
      "4785": 4600,
      "4769": 4601,
      "4771": 4602,
      "4639": 4603,
      "4673": 4604,
      "4619": 4605,
      "4133": 4606,
      "4121": 4607,
      "4179": 4608,
      "4134": 4609,
      "4088": 4610,
      "40fd": 4611,
      "4e8": 4612,
      "cd2": 4613,
      "cf0": 4614,
      "9f1": 4615,
      "0d9": 4616,
      "2f1": 4617,
      "dd1": 4618,
      "1d5": 4619,
      "fd7": 4620,
      "30T06": 4621,
      "4279": 4622,
      "0374": 4623,
      "0734": 4624,
      "4515": 4625,
      "4528": 4626,
      "4595": 4627,
      "4961": 4628,
      "4845": 4629,
      "4739": 4630,
      "4766": 4631,
      "4685": 4632,
      "4681": 4633,
      "4698": 4634,
      "4125": 4635,
      "4196": 4636,
      "4322": 4637,
      "4389": 4638,
      "4385": 4639,
      "4391": 4640,
      "4375": 4641,
      "10T00": 4642,
      "37b": 4643,
      "4402": 4644,
      "4d26": 4645,
      "aeb": 4646,
      "0fa": 4647,
      "deb": 4648,
      "3f6": 4649,
      "0c3": 4650,
      "7d5": 4651,
      "1d6": 4652,
      "edc": 4653,
      "4299": 4654,
      "0284": 4655,
      "0264": 4656,
      "0104": 4657,
      "0154": 4658,
      "0454": 4659,
      "0394": 4660,
      "0334": 4661,
      "0634": 4662,
      "22T18": 4663,
      "4586": 4664,
      "4526": 4665,
      "4577": 4666,
      "4947": 4667,
      "4955": 4668,
      "4957": 4669,
      "4846": 4670,
      "4897": 4671,
      "4832": 4672,
      "4799": 4673,
      "4759": 4674,
      "4778": 4675,
      "4631": 4676,
      "4687": 4677,
      "4177": 4678,
      "4132": 4679,
      "4351": 4680,
      "4357": 4681,
      "ba9": 4682,
      "be8": 4683,
      "bc8": 4684,
      "cc0": 4685,
      "ee3": 4686,
      "5f7": 4687,
      "6d5": 4688,
      "4267": 4689,
      "4278": 4690,
      "4245": 4691,
      "4419": 4692,
      "0054": 4693,
      "0014": 4694,
      "0164": 4695,
      "0134": 4696,
      "0434": 4697,
      "0654": 4698,
      "4596": 4699,
      "4537": 4700,
      "4588": 4701,
      "4579": 4702,
      "4592": 4703,
      "4987": 4704,
      "4972": 4705,
      "48ab": 4706,
      "4839": 4707,
      "4851": 4708,
      "4882": 4709,
      "48e1": 4710,
      "4715": 4711,
      "4725": 4712,
      "4726": 4713,
      "4761": 4714,
      "4774": 4715,
      "4602": 4716,
      "4633": 4717,
      "4608": 4718,
      "4684": 4719,
      "462d": 4720,
      "466e": 4721,
      "4105": 4722,
      "4197": 4723,
      "4199": 4724,
      "4151": 4725,
      "4159": 4726,
      "09T11": 4727,
      "09T10": 4728,
      "44c7": 4729,
      "4205": 4730,
      "ba0": 4731,
      "19a": 4732,
      "53a": 4733,
      "8db": 4734,
      "cc2": 4735,
      "a5b": 4736,
      "ee1": 4737,
      "ac9": 4738,
      "4486": 4739,
      "4495": 4740,
      "4417": 4741,
      "322": 4742,
      "933": 4743,
      "0194": 4744,
      "0320": 4745,
      "4599": 4746,
      "4559": 4747,
      "45ef": 4748,
      "4933": 4749,
      "4937": 4750,
      "4975": 4751,
      "49cd": 4752,
      "4829": 4753,
      "4857": 4754,
      "4871": 4755,
      "4875": 4756,
      "4651": 4757,
      "4675": 4758,
      "4613": 4759,
      "4101": 4760,
      "4123": 4761,
      "4325": 4762,
      "4355": 4763,
      "4365": 4764,
      "4401": 4765,
      "4dfc": 4766,
      "4c97": 4767,
      "4c2f": 4768,
      "4229": 4769,
      "67b": 4770,
      "bf2": 4771,
      "ae8": 4772,
      "8f1": 4773,
      "bc2": 4774,
      "aa8": 4775,
      "ddb": 4776,
      "4483": 4777,
      "4459": 4778,
      "4166": 4779,
      "4415": 4780,
      "4217": 4781,
      "995": 4782,
      "a3b": 4783,
      "0484": 4784,
      "0584": 4785,
      "0314": 4786,
      "0694": 4787,
      "4501": 4788,
      "4503": 4789,
      "4922": 4790,
      "4946": 4791,
      "4944": 4792,
      "4913": 4793,
      "4803": 4794,
      "4833": 4795,
      "4809": 4796,
      "4861": 4797,
      "482e": 4798,
      "4733": 4799,
      "4722": 4800,
      "4728": 4801,
      "4795": 4802,
      "4734": 4803,
      "4647": 4804,
      "4627": 4805,
      "4665": 4806,
      "4671": 4807,
      "4183": 4808,
      "4138": 4809,
      "418e": 4810,
      "41dc": 4811,
      "4082": 4812,
      "408c": 4813,
      "40c1": 4814,
      "4393": 4815,
      "26T09": 4816,
      "ca0": 4817,
      "66b": 4818,
      "cf2": 4819,
      "▁215": 4820,
      "a6b": 4821,
      "ac8": 4822,
      "5f6": 4823,
      "6ec": 4824,
      "▁256": 4825,
      "887": 4826,
      "997": 4827,
      "0534": 4828,
      "0514": 4829,
      "0720": 4830,
      "4504": 4831,
      "4536": 4832,
      "4519": 4833,
      "451f": 4834,
      "4907": 4835,
      "4985": 4836,
      "4923": 4837,
      "4942": 4838,
      "4932": 4839,
      "491c": 4840,
      "4885": 4841,
      "4813": 4842,
      "4706": 4843,
      "4748": 4844,
      "478f": 4845,
      "4636": 4846,
      "4617": 4847,
      "46ca": 4848,
      "4679": 4849,
      "4129": 4850,
      "4148": 4851,
      "4187": 4852,
      "414d": 4853,
      "409e": 4854,
      "4326": 4855,
      "4381": 4856,
      "4366": 4857,
      "43df": 4858,
      "27T11": 4859,
      "27T01": 4860,
      "4433": 4861,
      "4bfd": 4862,
      "4efe": 4863,
      "4e9e": 4864,
      "42ad": 4865,
      "564": 4866,
      "56b": 4867,
      "bb2": 4868,
      "a1a": 4869,
      "6f5": 4870,
      "0c9": 4871,
      "1d7": 4872,
      "4457": 4873,
      "4436": 4874,
      "387": 4875,
      "e1f": 4876,
      "0002": 4877,
      "0413": 4878,
      "cb0": 4879,
      "▁171": 4880,
      "4521": 4881,
      "4544": 4882,
      "4542": 4883,
      "4508": 4884,
      "4903": 4885,
      "4939": 4886,
      "4919": 4887,
      "4979": 4888,
      "4918": 4889,
      "4952": 4890,
      "4895": 4891,
      "4864": 4892,
      "4704": 4893,
      "4747": 4894,
      "47fd": 4895,
      "4616": 4896,
      "4637": 4897,
      "4677": 4898,
      "4145": 4899,
      "4189": 4900,
      "4188": 4901,
      "4157": 4902,
      "4099": 4903,
      "4084": 4904,
      "4347": 4905,
      "4386": 4906,
      "4354": 4907,
      "4f0": 4908,
      "4a91": 4909,
      "4c6e": 4910,
      "61b": 4911,
      "18a": 4912,
      "9d1": 4913,
      "3f3": 4914,
      "4296": 4915,
      "4163": 4916,
      "4475": 4917,
      "106": 4918,
      "826": 4919,
      "985": 4920,
      "0034": 4921,
      "0274": 4922,
      "0105": 4923,
      "0120": 4924,
      "01T08": 4925,
      "▁105": 4926,
      "0520": 4927,
      "0794": 4928,
      "▁150": 4929,
      "0684": 4930,
      "4522": 4931,
      "4548": 4932,
      "4546": 4933,
      "4523": 4934,
      "4565": 4935,
      "4573": 4936,
      "4929": 4937,
      "4983": 4938,
      "4993": 4939,
      "4973": 4940,
      "4976": 4941,
      "498d": 4942,
      "490b": 4943,
      "4824": 4944,
      "4828": 4945,
      "486f": 4946,
      "4701": 4947,
      "4786": 4948,
      "4796": 4949,
      "4623": 4950,
      "4661": 4951,
      "4694": 4952,
      "4107": 4953,
      "4143": 4954,
      "4139": 4955,
      "41bf": 4956,
      "40b9": 4957,
      "4344": 4958,
      "4399": 4959,
      "ea0": 4960,
      "4403": 4961,
      "4ba1": 4962,
      "ca2": 4963,
      "4f2": 4964,
      "4c7a": 4965,
      "4cd6": 4966,
      "2eb": 4967,
      "c70": 4968,
      "7f3": 4969,
      "7e6": 4970,
      "4496": 4971,
      "4497": 4972,
      "4463": 4973,
      "4339": 4974,
      "4235": 4975,
      "4206": 4976,
      "130": 4977,
      "115": 4978,
      "929": 4979,
      "931": 4980,
      "0254": 4981,
      "da0": 4982,
      "4502": 4983,
      "4587": 4984,
      "4513": 4985,
      "4562": 4986,
      "452e": 4987,
      "4943": 4988,
      "4926": 4989,
      "4936": 4990,
      "4908": 4991,
      "4802": 4992,
      "4806": 4993,
      "4815": 4994,
      "4893": 4995,
      "4852": 4996,
      "4814": 4997,
      "4797": 4998,
      "4779": 4999
    },
    "merges": [
      [
        "0",
        "0"
      ],
      [
        "a",
        "t"
      ],
      [
        "0",
        "2"
      ],
      [
        "i",
        "g"
      ],
      [
        "s",
        "t"
      ],
      [
        "r",
        "e"
      ],
      [
        "h",
        "t"
      ],
      [
        "ig",
        "ht"
      ],
      [
        "2",
        "02"
      ],
      [
        "00",
        "00"
      ],
      [
        "d",
        "at"
      ],
      [
        "e",
        "st"
      ],
      [
        "dat",
        "e"
      ],
      [
        "202",
        "5"
      ],
      [
        "d",
        "a"
      ],
      [
        "02",
        "T"
      ],
      [
        "a",
        "r"
      ],
      [
        "e",
        "n"
      ],
      [
        "o",
        "n"
      ],
      [
        "i",
        "n"
      ],
      [
        "r",
        "i"
      ],
      [
        "▁",
        "0"
      ],
      [
        "w",
        "e"
      ],
      [
        "c",
        "ar"
      ],
      [
        "e",
        "r"
      ],
      [
        "v",
        "o"
      ],
      [
        "d",
        "i"
      ],
      [
        "y",
        "s"
      ],
      [
        "0",
        "1"
      ],
      [
        "c",
        "h"
      ],
      [
        "d",
        "est"
      ],
      [
        "g",
        "re"
      ],
      [
        "l",
        "ight"
      ],
      [
        "o",
        "u"
      ],
      [
        "p",
        "at"
      ],
      [
        "q",
        "u"
      ],
      [
        "s",
        "pat"
      ],
      [
        "t",
        "o"
      ],
      [
        "at",
        "i"
      ],
      [
        "re",
        "qu"
      ],
      [
        "0000",
        "00"
      ],
      [
        "da",
        "ys"
      ],
      [
        "en",
        "light"
      ],
      [
        "ri",
        "er"
      ],
      [
        "we",
        "ight"
      ],
      [
        "car",
        "rier"
      ],
      [
        "vo",
        "l"
      ],
      [
        "di",
        "spat"
      ],
      [
        "gre",
        "enlight"
      ],
      [
        "requ",
        "est"
      ],
      [
        "dispat",
        "ch"
      ],
      [
        "a",
        "n"
      ],
      [
        "▁",
        "1"
      ],
      [
        "n",
        "e"
      ],
      [
        "3",
        "0"
      ],
      [
        "02T",
        "0"
      ],
      [
        "0",
        "4"
      ],
      [
        "02T",
        "1"
      ],
      [
        "▁",
        "L"
      ],
      [
        "i",
        "c"
      ],
      [
        "S",
        "ig"
      ],
      [
        "g",
        "i"
      ],
      [
        "o",
        "gi"
      ],
      [
        "st",
        "ic"
      ],
      [
        "in",
        "on"
      ],
      [
        "▁L",
        "ogi"
      ],
      [
        "Sig",
        "inon"
      ],
      [
        "stic",
        "s"
      ],
      [
        "▁Logi",
        "stics"
      ],
      [
        "an",
        "da"
      ],
      [
        "m",
        "e"
      ],
      [
        "02T0",
        "9"
      ],
      [
        "0",
        "5"
      ],
      [
        "m",
        "o"
      ],
      [
        "y",
        "a"
      ],
      [
        "f",
        "e"
      ],
      [
        "c",
        "e"
      ],
      [
        "c",
        "b"
      ],
      [
        "t",
        "e"
      ],
      [
        "K",
        "en"
      ],
      [
        "Ken",
        "ya"
      ],
      [
        "t",
        "r"
      ],
      [
        "ar",
        "t"
      ],
      [
        "c",
        "ou"
      ],
      [
        "k",
        "g"
      ],
      [
        "n",
        "°"
      ],
      [
        "n",
        "ce"
      ],
      [
        "n",
        "tr"
      ],
      [
        "o",
        "r"
      ],
      [
        "p",
        "art"
      ],
      [
        "r",
        "ou"
      ],
      [
        "r",
        "ati"
      ],
      [
        "s",
        "ig"
      ],
      [
        "u",
        "me"
      ],
      [
        "st",
        "l"
      ],
      [
        "re",
        "fe"
      ],
      [
        "re",
        "nce"
      ],
      [
        "in",
        "ati"
      ],
      [
        "dest",
        "inati"
      ],
      [
        "vol",
        "ume"
      ],
      [
        "ne",
        "d"
      ],
      [
        "mo",
        "stl"
      ],
      [
        "cb",
        "m"
      ],
      [
        "cou",
        "ntr"
      ],
      [
        "rou",
        "te"
      ],
      [
        "rati",
        "o"
      ],
      [
        "sig",
        "ned"
      ],
      [
        "refe",
        "rence"
      ],
      [
        "destinati",
        "on"
      ],
      [
        "countr",
        "y"
      ],
      [
        "U",
        "g"
      ],
      [
        "Ug",
        "anda"
      ],
      [
        "mostl",
        "y"
      ],
      [
        "2",
        "0"
      ],
      [
        "02T1",
        "0"
      ],
      [
        "0",
        "3"
      ],
      [
        "0",
        "7"
      ],
      [
        "2",
        "9"
      ],
      [
        "02T",
        "01"
      ],
      [
        "K",
        "u"
      ],
      [
        "N",
        "a"
      ],
      [
        "e",
        "h"
      ],
      [
        "e",
        "l"
      ],
      [
        "g",
        "el"
      ],
      [
        "▁",
        "Na"
      ],
      [
        "Ku",
        "eh"
      ],
      [
        "▁Na",
        "gel"
      ],
      [
        "Kueh",
        "ne"
      ],
      [
        "▁",
        "29"
      ],
      [
        "▁1",
        "6"
      ],
      [
        "T",
        "1"
      ],
      [
        "i",
        "a"
      ],
      [
        "▁1",
        "7"
      ],
      [
        "2",
        "4"
      ],
      [
        "3",
        "3"
      ],
      [
        "▁1",
        "5"
      ],
      [
        "1",
        "6"
      ],
      [
        "02T1",
        "4"
      ],
      [
        "C",
        "on"
      ],
      [
        "D",
        "R"
      ],
      [
        "g",
        "o"
      ],
      [
        "▁",
        "Con"
      ],
      [
        "▁Con",
        "go"
      ],
      [
        "0",
        "6"
      ],
      [
        "m",
        "b"
      ],
      [
        "2",
        "2"
      ],
      [
        "4",
        "5"
      ],
      [
        "3",
        "1"
      ],
      [
        "T",
        "an"
      ],
      [
        "z",
        "an"
      ],
      [
        "Tan",
        "zan"
      ],
      [
        "Tanzan",
        "ia"
      ],
      [
        "R",
        "w"
      ],
      [
        "Rw",
        "anda"
      ],
      [
        "4",
        "9"
      ],
      [
        "a",
        "b"
      ],
      [
        "C",
        "o"
      ],
      [
        "4",
        "8"
      ],
      [
        "4",
        "7"
      ],
      [
        "4",
        "6"
      ],
      [
        "T1",
        "2"
      ],
      [
        "4",
        "1"
      ],
      [
        "02T0",
        "3"
      ],
      [
        "4",
        "0"
      ],
      [
        "1",
        "5"
      ],
      [
        "4",
        "3"
      ],
      [
        "1",
        "0"
      ],
      [
        "2",
        "8"
      ],
      [
        "M",
        "a"
      ],
      [
        "0",
        "9"
      ],
      [
        "a",
        "d"
      ],
      [
        "2",
        "5"
      ],
      [
        "2",
        "7"
      ],
      [
        "8",
        "9"
      ],
      [
        "8",
        "5"
      ],
      [
        "8",
        "6"
      ],
      [
        "8",
        "7"
      ],
      [
        "2",
        "3"
      ],
      [
        "o",
        "s"
      ],
      [
        "r",
        "os"
      ],
      [
        "mo",
        "ros"
      ],
      [
        "Co",
        "moros"
      ],
      [
        "2",
        "6"
      ],
      [
        "8",
        "1"
      ],
      [
        "9",
        "6"
      ],
      [
        "3",
        "5"
      ],
      [
        "9",
        "5"
      ],
      [
        "3",
        "6"
      ],
      [
        "3",
        "7"
      ],
      [
        "▁",
        "T"
      ],
      [
        "e",
        "a"
      ],
      [
        "Z",
        "i"
      ],
      [
        "mb",
        "ab"
      ],
      [
        "Zi",
        "mbab"
      ],
      [
        "Zimbab",
        "we"
      ],
      [
        "2",
        "1"
      ],
      [
        "9",
        "7"
      ],
      [
        "4",
        "4"
      ],
      [
        "9",
        "1"
      ],
      [
        "a",
        "s"
      ],
      [
        "g",
        "as"
      ],
      [
        "da",
        "gas"
      ],
      [
        "Ma",
        "dagas"
      ],
      [
        "Madagas",
        "car"
      ],
      [
        "1",
        "33"
      ],
      [
        "5",
        "5"
      ],
      [
        "8",
        "8"
      ],
      [
        "4",
        "b"
      ],
      [
        "02T",
        "02"
      ],
      [
        "02T1",
        "2"
      ],
      [
        "20",
        "T12"
      ],
      [
        "ri",
        "t"
      ],
      [
        "1",
        "7"
      ],
      [
        "c",
        "a"
      ],
      [
        "4",
        "f"
      ],
      [
        "4",
        "d"
      ],
      [
        "4",
        "e"
      ],
      [
        "3",
        "9"
      ],
      [
        "Z",
        "a"
      ],
      [
        "mb",
        "ia"
      ],
      [
        "Za",
        "mbia"
      ],
      [
        "S",
        "a"
      ],
      [
        "o",
        "me"
      ],
      [
        "▁T",
        "ome"
      ],
      [
        "Sa",
        "o"
      ],
      [
        "4",
        "a"
      ],
      [
        "9",
        "9"
      ],
      [
        "6",
        "6"
      ],
      [
        "8",
        "3"
      ],
      [
        "i",
        "re"
      ],
      [
        "4",
        "c"
      ],
      [
        "4",
        "2"
      ],
      [
        "7",
        "7"
      ],
      [
        "1",
        "1"
      ],
      [
        "▁",
        "A"
      ],
      [
        "T1",
        "1"
      ],
      [
        "6",
        "5"
      ],
      [
        "6",
        "7"
      ],
      [
        "C",
        "h"
      ],
      [
        "Ch",
        "ad"
      ],
      [
        "0",
        "8"
      ],
      [
        "5",
        "1"
      ],
      [
        "5",
        "7"
      ],
      [
        "3",
        "8"
      ],
      [
        "6",
        "9"
      ],
      [
        "9",
        "8"
      ],
      [
        "7",
        "1"
      ],
      [
        "b",
        "a"
      ],
      [
        "6",
        "1"
      ],
      [
        "9",
        "3"
      ],
      [
        "7",
        "5"
      ],
      [
        "G",
        "u"
      ],
      [
        "in",
        "ea"
      ],
      [
        "Gu",
        "inea"
      ],
      [
        "8",
        "2"
      ],
      [
        "5",
        "6"
      ],
      [
        "5",
        "9"
      ],
      [
        "7",
        "3"
      ],
      [
        "7",
        "6"
      ],
      [
        "24",
        "T"
      ],
      [
        "F",
        "re"
      ],
      [
        "i",
        "me"
      ],
      [
        "Fre",
        "ight"
      ],
      [
        "5",
        "0"
      ],
      [
        "b",
        "f"
      ],
      [
        "b",
        "e"
      ],
      [
        "b",
        "d"
      ],
      [
        "1",
        "9"
      ],
      [
        "6",
        "8"
      ],
      [
        "7",
        "9"
      ],
      [
        "5",
        "3"
      ],
      [
        "5",
        "8"
      ],
      [
        "7",
        "2"
      ],
      [
        "7",
        "8"
      ],
      [
        "1",
        "8"
      ],
      [
        "6",
        "3"
      ],
      [
        "l",
        "vo"
      ],
      [
        "▁",
        "d"
      ],
      [
        "Co",
        "te"
      ],
      [
        "lvo",
        "ire"
      ],
      [
        "1",
        "3"
      ],
      [
        "9",
        "2"
      ],
      [
        "c",
        "d"
      ],
      [
        "c",
        "f"
      ],
      [
        "E",
        "rit"
      ],
      [
        "re",
        "a"
      ],
      [
        "Erit",
        "rea"
      ],
      [
        "A",
        "R"
      ],
      [
        "R",
        "AR"
      ],
      [
        "RAR",
        "E"
      ],
      [
        "a",
        "e"
      ],
      [
        "mostl",
        "ya"
      ],
      [
        "a",
        "f"
      ],
      [
        "b",
        "b"
      ],
      [
        "mostly",
        "f"
      ],
      [
        "8",
        "d"
      ],
      [
        "B",
        "u"
      ],
      [
        "n",
        "di"
      ],
      [
        "r",
        "u"
      ],
      [
        "Bu",
        "ru"
      ],
      [
        "Buru",
        "ndi"
      ],
      [
        "8",
        "e"
      ],
      [
        "3",
        "2"
      ],
      [
        "5",
        "2"
      ],
      [
        "5",
        "4"
      ],
      [
        "mostly",
        "d"
      ],
      [
        "mostly",
        "e"
      ],
      [
        "9",
        "e"
      ],
      [
        "8",
        "f"
      ],
      [
        "6",
        "2"
      ],
      [
        "9",
        "d"
      ],
      [
        "9",
        "f"
      ],
      [
        "8",
        "4"
      ],
      [
        "I",
        "n"
      ],
      [
        "▁",
        "In"
      ],
      [
        "i",
        "u"
      ],
      [
        "u",
        "rit"
      ],
      [
        "Ma",
        "urit"
      ],
      [
        "iu",
        "s"
      ],
      [
        "Maurit",
        "ius"
      ],
      [
        "6",
        "4"
      ],
      [
        "b",
        "c"
      ],
      [
        "202",
        "4"
      ],
      [
        "1",
        "2"
      ],
      [
        "S",
        "i"
      ],
      [
        "e",
        "on"
      ],
      [
        "r",
        "a"
      ],
      [
        "er",
        "ra"
      ],
      [
        "▁L",
        "eon"
      ],
      [
        "Si",
        "erra"
      ],
      [
        "▁Leon",
        "e"
      ],
      [
        "7",
        "4"
      ],
      [
        "9",
        "4"
      ],
      [
        "a",
        "a"
      ],
      [
        "a",
        "ys"
      ],
      [
        "i",
        "r"
      ],
      [
        "w",
        "ays"
      ],
      [
        "▁A",
        "ir"
      ],
      [
        "▁Air",
        "ways"
      ],
      [
        "3",
        "4"
      ],
      [
        "b",
        "7"
      ],
      [
        "b",
        "5"
      ],
      [
        "C",
        "en"
      ],
      [
        "R",
        "e"
      ],
      [
        "a",
        "l"
      ],
      [
        "b",
        "l"
      ],
      [
        "f",
        "ri"
      ],
      [
        "p",
        "u"
      ],
      [
        "▁",
        "Re"
      ],
      [
        "tr",
        "al"
      ],
      [
        "▁A",
        "fri"
      ],
      [
        "Cen",
        "tral"
      ],
      [
        "bl",
        "ic"
      ],
      [
        "pu",
        "blic"
      ],
      [
        "▁Re",
        "public"
      ],
      [
        "▁Afri",
        "ca"
      ],
      [
        "0",
        "f"
      ],
      [
        "0",
        "d"
      ],
      [
        "0",
        "e"
      ],
      [
        "b",
        "6"
      ],
      [
        "c",
        "c"
      ],
      [
        "22",
        "T"
      ],
      [
        "b",
        "1"
      ],
      [
        "1",
        "4"
      ],
      [
        "8",
        "a"
      ],
      [
        "▁1",
        "3"
      ],
      [
        "9",
        "a"
      ],
      [
        "▁",
        "2"
      ],
      [
        "b",
        "3"
      ],
      [
        "▁1",
        "8"
      ],
      [
        "24",
        "T11"
      ],
      [
        "t",
        "ime"
      ],
      [
        "▁",
        "time"
      ],
      [
        "8",
        "c"
      ],
      [
        "2",
        "d"
      ],
      [
        "2",
        "e"
      ],
      [
        "2",
        "f"
      ],
      [
        "9",
        "c"
      ],
      [
        "▁1",
        "9"
      ],
      [
        "0",
        "a"
      ],
      [
        "f",
        "f"
      ],
      [
        "d",
        "e"
      ],
      [
        "c",
        "7"
      ],
      [
        "c",
        "6"
      ],
      [
        "▁1",
        "4"
      ],
      [
        "c",
        "5"
      ],
      [
        "c",
        "1"
      ],
      [
        "D",
        "ire"
      ],
      [
        "K",
        "Q"
      ],
      [
        "c",
        "t"
      ],
      [
        "▁",
        "ch"
      ],
      [
        "art",
        "er"
      ],
      [
        "Dire",
        "ct"
      ],
      [
        "▁ch",
        "arter"
      ],
      [
        "24",
        "T12"
      ],
      [
        "d",
        "d"
      ],
      [
        "3",
        "e"
      ],
      [
        "a",
        "7"
      ],
      [
        "8",
        "b"
      ],
      [
        "a",
        "6"
      ],
      [
        "9",
        "b"
      ],
      [
        "a",
        "5"
      ],
      [
        "d",
        "f"
      ],
      [
        "T1",
        "0"
      ],
      [
        "22T",
        "05"
      ],
      [
        "3",
        "f"
      ],
      [
        "E",
        "t"
      ],
      [
        "h",
        "i"
      ],
      [
        "o",
        "p"
      ],
      [
        "Et",
        "hi"
      ],
      [
        "op",
        "ia"
      ],
      [
        "Ethi",
        "opia"
      ],
      [
        "a",
        "1"
      ],
      [
        "e",
        "e"
      ],
      [
        "9",
        "0"
      ],
      [
        "7",
        "0"
      ],
      [
        "3",
        "d"
      ],
      [
        "a",
        "c"
      ],
      [
        "▁",
        "4"
      ],
      [
        "e",
        "f"
      ],
      [
        "7",
        "f"
      ],
      [
        "1",
        "f"
      ],
      [
        "6",
        "f"
      ],
      [
        "S",
        "u"
      ],
      [
        "da",
        "n"
      ],
      [
        "Su",
        "dan"
      ],
      [
        "2",
        "a"
      ],
      [
        "T",
        "09"
      ],
      [
        "8",
        "0"
      ],
      [
        "31",
        "T"
      ],
      [
        "▁",
        "6"
      ],
      [
        "b",
        "9"
      ],
      [
        "5",
        "f"
      ],
      [
        "1",
        "e"
      ],
      [
        "6",
        "e"
      ],
      [
        "2",
        "c"
      ],
      [
        "7",
        "e"
      ],
      [
        "5",
        "e"
      ],
      [
        "▁T",
        "ime"
      ],
      [
        "▁",
        "3"
      ],
      [
        "b",
        "8"
      ],
      [
        "0",
        "c"
      ],
      [
        "7",
        "d"
      ],
      [
        "5",
        "d"
      ],
      [
        "1",
        "d"
      ],
      [
        "24T",
        "05"
      ],
      [
        "▁",
        "5"
      ],
      [
        "2",
        "b"
      ],
      [
        "▁",
        "31"
      ],
      [
        "6",
        "d"
      ],
      [
        "3",
        "a"
      ],
      [
        "0",
        "b"
      ],
      [
        "3",
        "c"
      ],
      [
        "f",
        "d"
      ],
      [
        "3",
        "b"
      ],
      [
        "c",
        "9"
      ],
      [
        "e",
        "d"
      ],
      [
        "31T",
        "04"
      ],
      [
        "7",
        "a"
      ],
      [
        "c",
        "3"
      ],
      [
        "1",
        "a"
      ],
      [
        "c",
        "8"
      ],
      [
        "5",
        "a"
      ],
      [
        "6",
        "a"
      ],
      [
        "7",
        "c"
      ],
      [
        "1",
        "b"
      ],
      [
        "5",
        "c"
      ],
      [
        "1",
        "c"
      ],
      [
        "7",
        "b"
      ],
      [
        "02T",
        "00"
      ],
      [
        "6",
        "b"
      ],
      [
        "5",
        "b"
      ],
      [
        "f",
        "a"
      ],
      [
        "6",
        "c"
      ],
      [
        "T1",
        "4"
      ],
      [
        "b",
        "2"
      ],
      [
        "▁",
        "9"
      ],
      [
        "b",
        "0"
      ],
      [
        "D",
        "H"
      ],
      [
        "E",
        "x"
      ],
      [
        "p",
        "re"
      ],
      [
        "s",
        "s"
      ],
      [
        "▁",
        "Ex"
      ],
      [
        "DH",
        "L"
      ],
      [
        "pre",
        "ss"
      ],
      [
        "▁Ex",
        "press"
      ],
      [
        "d",
        "c"
      ],
      [
        "b",
        "4"
      ],
      [
        "f",
        "c"
      ],
      [
        "▁",
        "7"
      ],
      [
        "6",
        "0"
      ],
      [
        "a",
        "9"
      ],
      [
        "▁",
        "in"
      ],
      [
        "f",
        "b"
      ],
      [
        "c",
        "2"
      ],
      [
        "a",
        "3"
      ],
      [
        "e",
        "c"
      ],
      [
        "d",
        "b"
      ],
      [
        "a",
        "8"
      ],
      [
        "d",
        "6"
      ],
      [
        "c",
        "4"
      ],
      [
        "f",
        "7"
      ],
      [
        "G",
        "l"
      ],
      [
        "S",
        "c"
      ],
      [
        "o",
        "ba"
      ],
      [
        "▁",
        "Gl"
      ],
      [
        "Sc",
        "an"
      ],
      [
        "oba",
        "l"
      ],
      [
        "▁Gl",
        "obal"
      ],
      [
        "d",
        "5"
      ],
      [
        "d",
        "7"
      ],
      [
        "f",
        "6"
      ],
      [
        "23",
        "T11"
      ],
      [
        "c",
        "0"
      ],
      [
        "f",
        "5"
      ],
      [
        "d",
        "1"
      ],
      [
        "e",
        "b"
      ],
      [
        "f",
        "1"
      ],
      [
        "▁",
        "30"
      ],
      [
        "e",
        "7"
      ],
      [
        "e",
        "5"
      ],
      [
        "f",
        "9"
      ],
      [
        "24T",
        "09"
      ],
      [
        "30",
        "T"
      ],
      [
        "e",
        "6"
      ],
      [
        "e",
        "1"
      ],
      [
        "d",
        "3"
      ],
      [
        "22",
        "T10"
      ],
      [
        "f",
        "8"
      ],
      [
        "d",
        "9"
      ],
      [
        "d",
        "8"
      ],
      [
        "▁1",
        "35"
      ],
      [
        "f",
        "3"
      ],
      [
        "a",
        "2"
      ],
      [
        "e",
        "9"
      ],
      [
        "▁1",
        "37"
      ],
      [
        "▁1",
        "36"
      ],
      [
        "28",
        "T12"
      ],
      [
        "e",
        "3"
      ],
      [
        "e",
        "8"
      ],
      [
        "30",
        "T12"
      ],
      [
        "▁1",
        "33"
      ],
      [
        "24T",
        "01"
      ],
      [
        "a",
        "4"
      ],
      [
        "f",
        "2"
      ],
      [
        "a",
        "0"
      ],
      [
        "▁1",
        "41"
      ],
      [
        "d",
        "2"
      ],
      [
        "f",
        "0"
      ],
      [
        "▁",
        "70"
      ],
      [
        "▁",
        "27"
      ],
      [
        "▁",
        "69"
      ],
      [
        "d",
        "4"
      ],
      [
        "f",
        "4"
      ],
      [
        "▁",
        "71"
      ],
      [
        "d",
        "0"
      ],
      [
        "02T1",
        "1"
      ],
      [
        "▁",
        "8"
      ],
      [
        "▁",
        "20"
      ],
      [
        "e",
        "4"
      ],
      [
        "22",
        "T11"
      ],
      [
        "e",
        "2"
      ],
      [
        "e",
        "0"
      ],
      [
        "▁",
        "73"
      ],
      [
        "▁",
        "72"
      ],
      [
        "▁1",
        "43"
      ],
      [
        "▁1",
        "45"
      ],
      [
        "0",
        "30"
      ],
      [
        "▁1",
        "95"
      ],
      [
        "▁1",
        "96"
      ],
      [
        "▁1",
        "49"
      ],
      [
        "01",
        "7"
      ],
      [
        "▁1",
        "85"
      ],
      [
        "05",
        "7"
      ],
      [
        "00",
        "7"
      ],
      [
        "▁1",
        "46"
      ],
      [
        "▁1",
        "48"
      ],
      [
        "▁1",
        "86"
      ],
      [
        "01",
        "5"
      ],
      [
        "▁1",
        "87"
      ],
      [
        "02",
        "5"
      ],
      [
        "▁1",
        "89"
      ],
      [
        "00",
        "5"
      ],
      [
        "▁1",
        "47"
      ],
      [
        "03",
        "7"
      ],
      [
        "04",
        "7"
      ],
      [
        "06",
        "7"
      ],
      [
        "07",
        "7"
      ],
      [
        "04",
        "5"
      ],
      [
        "06",
        "5"
      ],
      [
        "02",
        "7"
      ],
      [
        "00",
        "6"
      ],
      [
        "01",
        "6"
      ],
      [
        "05",
        "5"
      ],
      [
        "03",
        "5"
      ],
      [
        "▁1",
        "39"
      ],
      [
        "30",
        "T09"
      ],
      [
        "07",
        "5"
      ],
      [
        "04",
        "6"
      ],
      [
        "02",
        "6"
      ],
      [
        "05",
        "6"
      ],
      [
        "T",
        "01"
      ],
      [
        "00",
        "9"
      ],
      [
        "N",
        "on"
      ],
      [
        "s",
        "o"
      ],
      [
        "Non",
        "so"
      ],
      [
        "▁1",
        "31"
      ],
      [
        "07",
        "6"
      ],
      [
        "02",
        "1"
      ],
      [
        "02T0",
        "8"
      ],
      [
        "01",
        "1"
      ],
      [
        "00",
        "1"
      ],
      [
        "05",
        "1"
      ],
      [
        "06",
        "6"
      ],
      [
        "24T",
        "03"
      ],
      [
        "31",
        "T11"
      ],
      [
        "07",
        "1"
      ],
      [
        "01",
        "9"
      ],
      [
        "04",
        "1"
      ],
      [
        "03",
        "6"
      ],
      [
        "05",
        "9"
      ],
      [
        "▁",
        "25"
      ],
      [
        "01",
        "8"
      ],
      [
        "24",
        "T10"
      ],
      [
        "06",
        "9"
      ],
      [
        "07",
        "9"
      ],
      [
        "▁",
        "21"
      ],
      [
        "04",
        "9"
      ],
      [
        "03",
        "1"
      ],
      [
        "02",
        "9"
      ],
      [
        "06",
        "1"
      ],
      [
        "4",
        "48"
      ],
      [
        "03",
        "9"
      ],
      [
        "00",
        "8"
      ],
      [
        "4",
        "45"
      ],
      [
        "07",
        "8"
      ],
      [
        "30T",
        "03"
      ],
      [
        "▁",
        "24"
      ],
      [
        "05",
        "8"
      ],
      [
        "4",
        "49"
      ],
      [
        "4",
        "25"
      ],
      [
        "02",
        "8"
      ],
      [
        "▁1",
        "81"
      ],
      [
        "04",
        "8"
      ],
      [
        "▁",
        "22"
      ],
      [
        "4",
        "26"
      ],
      [
        "4",
        "27"
      ],
      [
        "4",
        "46"
      ],
      [
        "4",
        "29"
      ],
      [
        "4",
        "31"
      ],
      [
        "4",
        "24"
      ],
      [
        "▁1",
        "91"
      ],
      [
        "4",
        "28"
      ],
      [
        "06",
        "8"
      ],
      [
        "4",
        "16"
      ],
      [
        "▁",
        "65"
      ],
      [
        "03",
        "8"
      ],
      [
        "▁",
        "45"
      ],
      [
        "4",
        "47"
      ],
      [
        "4",
        "33"
      ],
      [
        "00",
        "3"
      ],
      [
        "A",
        "S"
      ],
      [
        "H",
        "AS"
      ],
      [
        "N",
        "HAS"
      ],
      [
        "U",
        "NHAS"
      ],
      [
        "▁",
        "23"
      ],
      [
        "4",
        "41"
      ],
      [
        "24",
        "T14"
      ],
      [
        "▁1",
        "1"
      ],
      [
        "01",
        "3"
      ],
      [
        "02T0",
        "5"
      ],
      [
        "04",
        "3"
      ],
      [
        "05",
        "3"
      ],
      [
        "▁",
        "66"
      ],
      [
        "02",
        "3"
      ],
      [
        "1",
        "82"
      ],
      [
        "28",
        "T11"
      ],
      [
        "4",
        "23"
      ],
      [
        "T",
        "03"
      ],
      [
        "07",
        "3"
      ],
      [
        "03",
        "3"
      ],
      [
        "4",
        "22"
      ],
      [
        "06",
        "3"
      ],
      [
        "4",
        "21"
      ],
      [
        "30",
        "T10"
      ],
      [
        "4",
        "43"
      ],
      [
        "4",
        "30"
      ],
      [
        "▁",
        "68"
      ],
      [
        "▁",
        "67"
      ],
      [
        "▁",
        "44"
      ],
      [
        "23",
        "T12"
      ],
      [
        "▁",
        "59"
      ],
      [
        "4",
        "da"
      ],
      [
        "▁1",
        "88"
      ],
      [
        "4",
        "ab"
      ],
      [
        "25",
        "T09"
      ],
      [
        "▁",
        "64"
      ],
      [
        "▁",
        "26"
      ],
      [
        "4",
        "ce"
      ],
      [
        "4",
        "fe"
      ],
      [
        "▁1",
        "38"
      ],
      [
        "4",
        "ad"
      ],
      [
        "4",
        "cb"
      ],
      [
        "▁",
        "28"
      ],
      [
        "▁",
        "35"
      ],
      [
        "▁",
        "90"
      ],
      [
        "▁",
        "43"
      ],
      [
        "▁",
        "50"
      ],
      [
        "4",
        "07"
      ],
      [
        "15",
        "3"
      ],
      [
        "4",
        "06"
      ],
      [
        "▁",
        "36"
      ],
      [
        "▁1",
        "29"
      ],
      [
        "30T",
        "01"
      ],
      [
        "40",
        "9"
      ],
      [
        "4",
        "ea"
      ],
      [
        "4",
        "05"
      ],
      [
        "4",
        "ca"
      ],
      [
        "4",
        "20"
      ],
      [
        "4",
        "02"
      ],
      [
        "4",
        "01"
      ],
      [
        "▁",
        "47"
      ],
      [
        "▁1",
        "28"
      ],
      [
        "▁1",
        "27"
      ],
      [
        "4",
        "04"
      ],
      [
        "▁1",
        "25"
      ],
      [
        "▁1",
        "00"
      ],
      [
        "22",
        "T12"
      ],
      [
        "▁1",
        "26"
      ],
      [
        "T",
        "05"
      ],
      [
        "4",
        "03"
      ],
      [
        "15",
        "1"
      ],
      [
        "27",
        "5"
      ],
      [
        "mostly",
        "3c"
      ],
      [
        "02T0",
        "4"
      ],
      [
        "mostly",
        "82"
      ],
      [
        "mostly",
        "81"
      ],
      [
        "4",
        "00"
      ],
      [
        "mostlya",
        "9"
      ],
      [
        "1",
        "81"
      ],
      [
        "mostly",
        "4b"
      ],
      [
        "mostlyf",
        "3"
      ],
      [
        "mostly",
        "39"
      ],
      [
        "mostly",
        "b5"
      ],
      [
        "mostlya",
        "6"
      ],
      [
        "mostly",
        "90"
      ],
      [
        "27",
        "7"
      ],
      [
        "mostly",
        "65"
      ],
      [
        "mostly",
        "63"
      ],
      [
        "mostlyf",
        "9"
      ],
      [
        "mostly",
        "18"
      ],
      [
        "mostly",
        "57"
      ],
      [
        "mostly",
        "ea"
      ],
      [
        "mostly",
        "38"
      ],
      [
        "mostly",
        "6f"
      ],
      [
        "mostlyf",
        "0"
      ],
      [
        "mostly",
        "c1"
      ],
      [
        "mostlyf",
        "6"
      ],
      [
        "mostly",
        "25"
      ],
      [
        "mostly",
        "bd"
      ],
      [
        "mostly",
        "8b"
      ],
      [
        "mostly",
        "1a"
      ],
      [
        "mostlye",
        "c"
      ],
      [
        "mostly",
        "1f"
      ],
      [
        "mostly",
        "5b"
      ],
      [
        "mostly",
        "b7"
      ],
      [
        "mostly",
        "1b"
      ],
      [
        "31T",
        "05"
      ],
      [
        "mostly",
        "fe"
      ],
      [
        "mostly",
        "10"
      ],
      [
        "mostly",
        "50"
      ],
      [
        "▁27",
        "5"
      ],
      [
        "mostly",
        "96"
      ],
      [
        "mostly",
        "23"
      ],
      [
        "mostly",
        "cd"
      ],
      [
        "▁1",
        "0"
      ],
      [
        "mostly",
        "8d"
      ],
      [
        "mostly",
        "0d"
      ],
      [
        "mostly",
        "cb"
      ],
      [
        "mostlya",
        "3"
      ],
      [
        "mostlye",
        "0"
      ],
      [
        "mostly",
        "70"
      ],
      [
        "mostly",
        "0c"
      ],
      [
        "2",
        "24"
      ],
      [
        "mostly",
        "78"
      ],
      [
        "mostly",
        "c3"
      ],
      [
        "mostly",
        "7b"
      ],
      [
        "mostlyf",
        "7"
      ],
      [
        "mostlyf",
        "b"
      ],
      [
        "mostly",
        "20"
      ],
      [
        "mostlyd",
        "9"
      ],
      [
        "mostlye",
        "5"
      ],
      [
        "mostly",
        "43"
      ],
      [
        "mostly",
        "69"
      ],
      [
        "mostlyd",
        "f"
      ],
      [
        "mostly",
        "2d"
      ],
      [
        "mostly",
        "71"
      ],
      [
        "mostly",
        "19"
      ],
      [
        "mostly",
        "62"
      ],
      [
        "2",
        "29"
      ],
      [
        "mostly",
        "02"
      ],
      [
        "mostly",
        "0f"
      ],
      [
        "mostlyf",
        "2"
      ],
      [
        "mostly",
        "b6"
      ],
      [
        "mostly",
        "c8"
      ],
      [
        "mostlya",
        "4"
      ],
      [
        "mostly",
        "29"
      ],
      [
        "mostly",
        "77"
      ],
      [
        "mostly",
        "9e"
      ],
      [
        "mostly",
        "3e"
      ],
      [
        "mostly",
        "0b"
      ],
      [
        "mostly",
        "b9"
      ],
      [
        "mostly",
        "3a"
      ],
      [
        "mostly",
        "03"
      ],
      [
        "mostly",
        "60"
      ],
      [
        "mostly",
        "46"
      ],
      [
        "mostly",
        "68"
      ],
      [
        "mostly",
        "2c"
      ],
      [
        "2",
        "33"
      ],
      [
        "mostly",
        "67"
      ],
      [
        "mostly",
        "76"
      ],
      [
        "mostly",
        "64"
      ],
      [
        "mostlyd",
        "7"
      ],
      [
        "mostly",
        "87"
      ],
      [
        "mostly",
        "58"
      ],
      [
        "mostly",
        "8f"
      ],
      [
        "40",
        "8"
      ],
      [
        "2",
        "31"
      ],
      [
        "mostly",
        "61"
      ],
      [
        "mostly",
        "3b"
      ],
      [
        "mostly",
        "b2"
      ],
      [
        "mostlya",
        "f"
      ],
      [
        "mostlyf",
        "8"
      ],
      [
        "mostly",
        "24"
      ],
      [
        "mostly",
        "97"
      ],
      [
        "mostly",
        "b8"
      ],
      [
        "mostly",
        "6b"
      ],
      [
        "mostlyf",
        "4"
      ],
      [
        "mostlyf",
        "f"
      ],
      [
        "mostlyd",
        "c"
      ],
      [
        "mostly",
        "40"
      ],
      [
        "mostly",
        "07"
      ],
      [
        "mostly",
        "37"
      ],
      [
        "mostly",
        "11"
      ],
      [
        "mostly",
        "8c"
      ],
      [
        "mostly",
        "89"
      ],
      [
        "mostly",
        "55"
      ],
      [
        "mostly",
        "72"
      ],
      [
        "mostly",
        "79"
      ],
      [
        "mostly",
        "32"
      ],
      [
        "mostly",
        "01"
      ],
      [
        "mostly",
        "6a"
      ],
      [
        "mostlyf",
        "c"
      ],
      [
        "mostlyd",
        "3"
      ],
      [
        "mostly",
        "da"
      ],
      [
        "mostly",
        "4f"
      ],
      [
        "mostly",
        "4d"
      ],
      [
        "mostly",
        "48"
      ],
      [
        "mostly",
        "1c"
      ],
      [
        "mostly",
        "c0"
      ],
      [
        "▁",
        "37"
      ],
      [
        "mostly",
        "ce"
      ],
      [
        "mostly",
        "ca"
      ],
      [
        "mostly",
        "13"
      ],
      [
        "mostly",
        "54"
      ],
      [
        "mostly",
        "84"
      ],
      [
        "▁",
        "48"
      ],
      [
        "mostly",
        "86"
      ],
      [
        "mostly",
        "21"
      ],
      [
        "mostly",
        "98"
      ],
      [
        "mostly",
        "92"
      ],
      [
        "mostlya",
        "8"
      ],
      [
        "mostlye",
        "4"
      ],
      [
        "mostly",
        "33"
      ],
      [
        "mostly",
        "44"
      ],
      [
        "mostly",
        "c4"
      ],
      [
        "mostlyd",
        "4"
      ],
      [
        "mostlyd",
        "5"
      ],
      [
        "mostly",
        "c6"
      ],
      [
        "mostly",
        "30"
      ],
      [
        "mostly",
        "75"
      ],
      [
        "mostly",
        "b1"
      ],
      [
        "20",
        "7"
      ],
      [
        "mostlye",
        "1"
      ],
      [
        "mostly",
        "53"
      ],
      [
        "mostly",
        "31"
      ],
      [
        "mostly",
        "c7"
      ],
      [
        "mostly",
        "5e"
      ],
      [
        "mostlya",
        "a"
      ],
      [
        "mostlye",
        "9"
      ],
      [
        "mostly",
        "51"
      ],
      [
        "mostly",
        "bf"
      ],
      [
        "mostly",
        "2a"
      ],
      [
        "mostly",
        "b4"
      ],
      [
        "mostlye",
        "3"
      ],
      [
        "mostly",
        "c2"
      ],
      [
        "mostlyd",
        "2"
      ],
      [
        "mostlye",
        "e"
      ],
      [
        "mostly",
        "45"
      ],
      [
        "mostly",
        "27"
      ],
      [
        "mostly",
        "2e"
      ],
      [
        "mostly",
        "0a"
      ],
      [
        "mostly",
        "6c"
      ],
      [
        "mostlyf",
        "5"
      ],
      [
        "mostly",
        "80"
      ],
      [
        "22",
        "T14"
      ],
      [
        "mostly",
        "95"
      ],
      [
        "mostly",
        "8e"
      ],
      [
        "mostly",
        "34"
      ],
      [
        "mostly",
        "c5"
      ],
      [
        "mostly",
        "7f"
      ],
      [
        "mostlya",
        "2"
      ],
      [
        "30",
        "7"
      ],
      [
        "mostly",
        "5d"
      ],
      [
        "mostlyf",
        "1"
      ],
      [
        "mostlye",
        "6"
      ],
      [
        "mostly",
        "36"
      ],
      [
        "mostly",
        "88"
      ],
      [
        "mostly",
        "1e"
      ],
      [
        "16",
        "1"
      ],
      [
        "mostly",
        "ba"
      ],
      [
        "mostly",
        "9c"
      ],
      [
        "mostly",
        "7d"
      ],
      [
        "mostly",
        "05"
      ],
      [
        "mostlyd",
        "b"
      ],
      [
        "mostly",
        "5f"
      ],
      [
        "mostly",
        "b0"
      ],
      [
        "mostlyd",
        "1"
      ],
      [
        "mostlye",
        "2"
      ],
      [
        "mostly",
        "00"
      ],
      [
        "mostly",
        "be"
      ],
      [
        "mostly",
        "cf"
      ],
      [
        "mostly",
        "7a"
      ],
      [
        "mostlya",
        "e"
      ],
      [
        "T",
        "08"
      ],
      [
        "mostly",
        "99"
      ],
      [
        "mostly",
        "1d"
      ],
      [
        "83",
        "8"
      ],
      [
        "mostlye",
        "d"
      ],
      [
        "mostly",
        "26"
      ],
      [
        "mostly",
        "3f"
      ],
      [
        "mostly",
        "6e"
      ],
      [
        "mostly",
        "5a"
      ],
      [
        "mostly",
        "7c"
      ],
      [
        "mostlyd",
        "e"
      ],
      [
        "mostly",
        "09"
      ],
      [
        "mostly",
        "7e"
      ],
      [
        "41",
        "7"
      ],
      [
        "mostlyd",
        "d"
      ],
      [
        "30",
        "5"
      ],
      [
        "mostly",
        "47"
      ],
      [
        "mostlya",
        "d"
      ],
      [
        "mostlyd",
        "0"
      ],
      [
        "mostlye",
        "b"
      ],
      [
        "mostly",
        "5c"
      ],
      [
        "46",
        "7"
      ],
      [
        "mostlyd",
        "6"
      ],
      [
        "▁",
        "74"
      ],
      [
        "mostly",
        "06"
      ],
      [
        "mostly",
        "49"
      ],
      [
        "mostly",
        "3d"
      ],
      [
        "mostly",
        "b3"
      ],
      [
        "15",
        "5"
      ],
      [
        "T",
        "00"
      ],
      [
        "mostly",
        "4c"
      ],
      [
        "mostly",
        "9b"
      ],
      [
        "mostlya",
        "0"
      ],
      [
        "mostly",
        "28"
      ],
      [
        "mostly",
        "bb"
      ],
      [
        "mostly",
        "6d"
      ],
      [
        "20",
        "6"
      ],
      [
        "mostlya",
        "5"
      ],
      [
        "16",
        "5"
      ],
      [
        "mostly",
        "2b"
      ],
      [
        "mostlye",
        "8"
      ],
      [
        "mostly",
        "04"
      ],
      [
        "mostly",
        "52"
      ],
      [
        "mostly",
        "9d"
      ],
      [
        "mostly",
        "14"
      ],
      [
        "mostly",
        "c9"
      ],
      [
        "mostlya",
        "7"
      ],
      [
        "mostlye",
        "7"
      ],
      [
        "mostly",
        "73"
      ],
      [
        "mostly",
        "bc"
      ],
      [
        "mostlya",
        "c"
      ],
      [
        "mostly",
        "9f"
      ],
      [
        "mostly",
        "12"
      ],
      [
        "mostly",
        "15"
      ],
      [
        "mostly",
        "4e"
      ],
      [
        "mostly",
        "66"
      ],
      [
        "mostly",
        "9a"
      ],
      [
        "mostlya",
        "b"
      ],
      [
        "mostly",
        "56"
      ],
      [
        "mostlyf",
        "a"
      ],
      [
        "mostlye",
        "f"
      ],
      [
        "mostly",
        "17"
      ],
      [
        "mostly",
        "22"
      ],
      [
        "mostlyd",
        "8"
      ],
      [
        "30",
        "6"
      ],
      [
        "mostly",
        "08"
      ],
      [
        "15",
        "7"
      ],
      [
        "mostly",
        "cc"
      ],
      [
        "mostly",
        "2f"
      ],
      [
        "mostly",
        "74"
      ],
      [
        "16",
        "7"
      ],
      [
        "46",
        "5"
      ],
      [
        "▁",
        "33"
      ],
      [
        "15",
        "2"
      ],
      [
        "mostly",
        "16"
      ],
      [
        "mostly",
        "94"
      ],
      [
        "mostly",
        "59"
      ],
      [
        "16",
        "6"
      ],
      [
        "85",
        "7"
      ],
      [
        "mostlyf",
        "d"
      ],
      [
        "mostly",
        "8a"
      ],
      [
        "24",
        "7"
      ],
      [
        "mostly",
        "0e"
      ],
      [
        "mostly",
        "41"
      ],
      [
        "mostlya",
        "1"
      ],
      [
        "23",
        "5"
      ],
      [
        "mostly",
        "91"
      ],
      [
        "mostly",
        "35"
      ],
      [
        "mostly",
        "83"
      ],
      [
        "mostly",
        "4a"
      ],
      [
        "mostly",
        "42"
      ],
      [
        "49",
        "7"
      ],
      [
        "86",
        "7"
      ],
      [
        "22",
        "5"
      ],
      [
        "89",
        "6"
      ],
      [
        "mostly",
        "85"
      ],
      [
        "87",
        "6"
      ],
      [
        "22",
        "7"
      ],
      [
        "28",
        "1"
      ],
      [
        "23",
        "7"
      ],
      [
        "mostly",
        "93"
      ],
      [
        "87",
        "7"
      ],
      [
        "30",
        "9"
      ],
      [
        "15",
        "6"
      ],
      [
        "28",
        "T09"
      ],
      [
        "81",
        "7"
      ],
      [
        "41",
        "5"
      ],
      [
        "25",
        "T12"
      ],
      [
        "43",
        "7"
      ],
      [
        "25",
        "5"
      ],
      [
        "49",
        "1"
      ],
      [
        "89",
        "9"
      ],
      [
        "26",
        "7"
      ],
      [
        "▁",
        "61"
      ],
      [
        "29",
        "7"
      ],
      [
        "86",
        "6"
      ],
      [
        "22T",
        "01"
      ],
      [
        "49",
        "6"
      ],
      [
        "30",
        "8"
      ],
      [
        "85",
        "5"
      ],
      [
        "29",
        "5"
      ],
      [
        "28",
        "5"
      ],
      [
        "28",
        "7"
      ],
      [
        "89",
        "5"
      ],
      [
        "22",
        "6"
      ],
      [
        "8",
        "35"
      ],
      [
        "16",
        "3"
      ],
      [
        "85",
        "6"
      ],
      [
        "1",
        "83"
      ],
      [
        "31",
        "5"
      ],
      [
        "86",
        "5"
      ],
      [
        "24",
        "5"
      ],
      [
        "27",
        "6"
      ],
      [
        "49",
        "5"
      ],
      [
        "8",
        "37"
      ],
      [
        "89",
        "7"
      ],
      [
        "21",
        "7"
      ],
      [
        "24",
        "9"
      ],
      [
        "31",
        "7"
      ],
      [
        "48",
        "7"
      ],
      [
        "16",
        "9"
      ],
      [
        "29",
        "6"
      ],
      [
        "25",
        "7"
      ],
      [
        "23",
        "9"
      ],
      [
        "36",
        "5"
      ],
      [
        "87",
        "5"
      ],
      [
        "26",
        "1"
      ],
      [
        "▁6",
        "0"
      ],
      [
        "20",
        "9"
      ],
      [
        "24",
        "6"
      ],
      [
        "45",
        "7"
      ],
      [
        "25",
        "9"
      ],
      [
        "21",
        "1"
      ],
      [
        "28",
        "9"
      ],
      [
        "45",
        "5"
      ],
      [
        "8",
        "47"
      ],
      [
        "46",
        "1"
      ],
      [
        "43",
        "6"
      ],
      [
        "26",
        "6"
      ],
      [
        "30",
        "T11"
      ],
      [
        "85",
        "1"
      ],
      [
        "97",
        "5"
      ],
      [
        "48",
        "5"
      ],
      [
        "25",
        "1"
      ],
      [
        "86",
        "1"
      ],
      [
        "15",
        "9"
      ],
      [
        "26",
        "5"
      ],
      [
        "97",
        "7"
      ],
      [
        "27",
        "1"
      ],
      [
        "29",
        "1"
      ],
      [
        "87",
        "1"
      ],
      [
        "23",
        "6"
      ],
      [
        "87",
        "9"
      ],
      [
        "00",
        "2"
      ],
      [
        "36",
        "6"
      ],
      [
        "25",
        "6"
      ],
      [
        "48",
        "6"
      ],
      [
        "27",
        "3"
      ],
      [
        "36",
        "7"
      ],
      [
        "30",
        "3"
      ],
      [
        "22",
        "1"
      ],
      [
        "41",
        "1"
      ],
      [
        "16",
        "8"
      ],
      [
        "41",
        "8"
      ],
      [
        "43",
        "5"
      ],
      [
        "81",
        "1"
      ],
      [
        "20",
        "8"
      ],
      [
        "46",
        "6"
      ],
      [
        "28",
        "6"
      ],
      [
        "01",
        "2"
      ],
      [
        "49",
        "9"
      ],
      [
        "89",
        "1"
      ],
      [
        "96",
        "7"
      ],
      [
        "13",
        "2"
      ],
      [
        "47",
        "6"
      ],
      [
        "41",
        "9"
      ],
      [
        "21",
        "9"
      ],
      [
        "24",
        "1"
      ],
      [
        "33",
        "1"
      ],
      [
        "20",
        "3"
      ],
      [
        "33",
        "7"
      ],
      [
        "45",
        "1"
      ],
      [
        "49",
        "3"
      ],
      [
        "15",
        "8"
      ],
      [
        "81",
        "9"
      ],
      [
        "17",
        "T12"
      ],
      [
        "24",
        "8"
      ],
      [
        "41",
        "3"
      ],
      [
        "89",
        "8"
      ],
      [
        "96",
        "6"
      ],
      [
        "46",
        "9"
      ],
      [
        "47",
        "7"
      ],
      [
        "▁",
        "55"
      ],
      [
        "46",
        "8"
      ],
      [
        "▁1",
        "30"
      ],
      [
        "10",
        "9"
      ],
      [
        "23",
        "8"
      ],
      [
        "35",
        "5"
      ],
      [
        "91",
        "7"
      ],
      [
        "85",
        "9"
      ],
      [
        "86",
        "8"
      ],
      [
        "86",
        "3"
      ],
      [
        "39",
        "9"
      ],
      [
        "45",
        "6"
      ],
      [
        "04",
        "2"
      ],
      [
        "43",
        "9"
      ],
      [
        "T",
        "04"
      ],
      [
        "29",
        "3"
      ],
      [
        "48",
        "1"
      ],
      [
        "47",
        "5"
      ],
      [
        "86",
        "9"
      ],
      [
        "36",
        "9"
      ],
      [
        "22",
        "8"
      ],
      [
        "95",
        "5"
      ],
      [
        "81",
        "3"
      ],
      [
        "95",
        "7"
      ],
      [
        "36",
        "1"
      ],
      [
        "24T",
        "04"
      ],
      [
        "01",
        "T12"
      ],
      [
        "22T",
        "03"
      ],
      [
        "05",
        "2"
      ],
      [
        "33",
        "5"
      ],
      [
        "89",
        "3"
      ],
      [
        "87",
        "3"
      ],
      [
        "96",
        "5"
      ],
      [
        "29",
        "9"
      ],
      [
        "96",
        "1"
      ],
      [
        "97",
        "6"
      ],
      [
        "27",
        "9"
      ],
      [
        "35",
        "6"
      ],
      [
        "85",
        "8"
      ],
      [
        "45",
        "8"
      ],
      [
        "35",
        "7"
      ],
      [
        "10",
        "8"
      ],
      [
        "47",
        "1"
      ],
      [
        "22",
        "3"
      ],
      [
        "31",
        "9"
      ],
      [
        "33",
        "6"
      ],
      [
        "95",
        "1"
      ],
      [
        "37",
        "7"
      ],
      [
        "35",
        "9"
      ],
      [
        "47",
        "9"
      ],
      [
        "97",
        "1"
      ],
      [
        "28",
        "8"
      ],
      [
        "95",
        "6"
      ],
      [
        "83",
        "2"
      ],
      [
        "48",
        "9"
      ],
      [
        "02",
        "2"
      ],
      [
        "45",
        "3"
      ],
      [
        "26",
        "9"
      ],
      [
        "88",
        "8"
      ],
      [
        "26",
        "3"
      ],
      [
        "21",
        "8"
      ],
      [
        "45",
        "9"
      ],
      [
        "91",
        "1"
      ],
      [
        "▁27",
        "4"
      ],
      [
        "▁1",
        "01"
      ],
      [
        "28",
        "T14"
      ],
      [
        "85",
        "3"
      ],
      [
        "16",
        "2"
      ],
      [
        "09",
        "5"
      ],
      [
        "37",
        "5"
      ],
      [
        "91",
        "9"
      ],
      [
        "▁1",
        "44"
      ],
      [
        "49",
        "8"
      ],
      [
        "03",
        "2"
      ],
      [
        "09",
        "7"
      ],
      [
        "28",
        "3"
      ],
      [
        "24",
        "3"
      ],
      [
        "37",
        "6"
      ],
      [
        "96",
        "9"
      ],
      [
        "01",
        "T09"
      ],
      [
        "46",
        "3"
      ],
      [
        "97",
        "9"
      ],
      [
        "31",
        "8"
      ],
      [
        "87",
        "8"
      ],
      [
        "26",
        "8"
      ],
      [
        "29",
        "8"
      ],
      [
        "48",
        "8"
      ],
      [
        "97",
        "8"
      ],
      [
        "31",
        "1"
      ],
      [
        "27",
        "8"
      ],
      [
        "25",
        "3"
      ],
      [
        "81",
        "8"
      ],
      [
        "06",
        "2"
      ],
      [
        "▁1",
        "02"
      ],
      [
        "96",
        "8"
      ],
      [
        "▁",
        "51"
      ],
      [
        "33",
        "9"
      ],
      [
        "39",
        "8"
      ],
      [
        "91",
        "8"
      ],
      [
        "17",
        "7"
      ],
      [
        "37",
        "1"
      ],
      [
        "21",
        "3"
      ],
      [
        "25",
        "8"
      ],
      [
        "▁1",
        "03"
      ],
      [
        "39",
        "3"
      ],
      [
        "07",
        "2"
      ],
      [
        "▁",
        "99"
      ],
      [
        "▁1",
        "24"
      ],
      [
        "43",
        "8"
      ],
      [
        "31",
        "3"
      ],
      [
        "35",
        "3"
      ],
      [
        "35",
        "8"
      ],
      [
        "83",
        "4"
      ],
      [
        "▁1",
        "04"
      ],
      [
        "35",
        "1"
      ],
      [
        "▁",
        "57"
      ],
      [
        "36",
        "8"
      ],
      [
        "17",
        "5"
      ],
      [
        "47",
        "8"
      ],
      [
        "95",
        "9"
      ],
      [
        "88",
        "3"
      ],
      [
        "47",
        "3"
      ],
      [
        "09",
        "6"
      ],
      [
        "48",
        "3"
      ],
      [
        "95",
        "8"
      ],
      [
        "▁",
        "91"
      ],
      [
        "36",
        "3"
      ],
      [
        "27",
        "4"
      ],
      [
        "b",
        "bf"
      ],
      [
        "33",
        "3"
      ],
      [
        "33",
        "8"
      ],
      [
        "b",
        "ad"
      ],
      [
        "09",
        "9"
      ],
      [
        "93",
        "2"
      ],
      [
        "37",
        "9"
      ],
      [
        "97",
        "3"
      ],
      [
        "95",
        "3"
      ],
      [
        "28",
        "2"
      ],
      [
        "91",
        "3"
      ],
      [
        "b",
        "4b"
      ],
      [
        "b",
        "0e"
      ],
      [
        "b",
        "77"
      ],
      [
        "37",
        "8"
      ],
      [
        "0",
        "89"
      ],
      [
        "b",
        "cb"
      ],
      [
        "23",
        "2"
      ],
      [
        "17",
        "1"
      ],
      [
        "a",
        "da"
      ],
      [
        "b",
        "66"
      ],
      [
        "b",
        "8e"
      ],
      [
        "▁",
        "96"
      ],
      [
        "b",
        "8d"
      ],
      [
        "b",
        "fe"
      ],
      [
        "b",
        "ce"
      ],
      [
        "49",
        "2"
      ],
      [
        "b",
        "ab"
      ],
      [
        "09",
        "1"
      ],
      [
        "96",
        "3"
      ],
      [
        "17",
        "9"
      ],
      [
        "a",
        "cb"
      ],
      [
        "b",
        "9e"
      ],
      [
        "4",
        "40"
      ],
      [
        "▁",
        "95"
      ],
      [
        "09",
        "8"
      ],
      [
        "99",
        "9"
      ],
      [
        "b",
        "4f"
      ],
      [
        "37",
        "3"
      ],
      [
        "▁",
        "56"
      ],
      [
        "0",
        "85"
      ],
      [
        "b",
        "55"
      ],
      [
        "▁",
        "41"
      ],
      [
        "a",
        "77"
      ],
      [
        "a",
        "ab"
      ],
      [
        "▁",
        "97"
      ],
      [
        "30",
        "4"
      ],
      [
        "17",
        "3"
      ],
      [
        "24T",
        "00"
      ],
      [
        "b",
        "0f"
      ],
      [
        "0",
        "86"
      ],
      [
        "b",
        "67"
      ],
      [
        "27",
        "2"
      ],
      [
        "21",
        "2"
      ],
      [
        "a",
        "4b"
      ],
      [
        "b",
        "cd"
      ],
      [
        "b",
        "2f"
      ],
      [
        "▁",
        "63"
      ],
      [
        "22T",
        "04"
      ],
      [
        "29",
        "2"
      ],
      [
        "b",
        "9f"
      ],
      [
        "▁1",
        "2"
      ],
      [
        "b",
        "2e"
      ],
      [
        "00",
        "4"
      ],
      [
        "22",
        "2"
      ],
      [
        "a",
        "9d"
      ],
      [
        "b",
        "57"
      ],
      [
        "b",
        "be"
      ],
      [
        "87",
        "2"
      ],
      [
        "17",
        "6"
      ],
      [
        "a",
        "0f"
      ],
      [
        "b",
        "ca"
      ],
      [
        "a",
        "2f"
      ],
      [
        "a",
        "66"
      ],
      [
        "b",
        "65"
      ],
      [
        "b",
        "cf"
      ],
      [
        "a",
        "ae"
      ],
      [
        "b",
        "8f"
      ],
      [
        "b",
        "2d"
      ],
      [
        "b",
        "9d"
      ],
      [
        "11",
        "9"
      ],
      [
        "a",
        "67"
      ],
      [
        "b",
        "4e"
      ],
      [
        "b",
        "4a"
      ],
      [
        "▁",
        "38"
      ],
      [
        "25",
        "2"
      ],
      [
        "a",
        "ce"
      ],
      [
        "46",
        "2"
      ],
      [
        "a",
        "8f"
      ],
      [
        "01",
        "4"
      ],
      [
        "b",
        "da"
      ],
      [
        "▁",
        "39"
      ],
      [
        "a",
        "fe"
      ],
      [
        "a",
        "4d"
      ],
      [
        "45",
        "2"
      ],
      [
        "11",
        "1"
      ],
      [
        "a",
        "55"
      ],
      [
        "b",
        "bd"
      ],
      [
        "93",
        "4"
      ],
      [
        "02",
        "4"
      ],
      [
        "81",
        "2"
      ],
      [
        "a",
        "9f"
      ],
      [
        "04",
        "4"
      ],
      [
        "17",
        "8"
      ],
      [
        "86",
        "2"
      ],
      [
        "b",
        "ea"
      ],
      [
        "b",
        "0d"
      ],
      [
        "36",
        "2"
      ],
      [
        "a",
        "0e"
      ],
      [
        "8",
        "fe"
      ],
      [
        "09",
        "3"
      ],
      [
        "26",
        "2"
      ],
      [
        "0",
        "87"
      ],
      [
        "a",
        "cd"
      ],
      [
        "a",
        "57"
      ],
      [
        "a",
        "65"
      ],
      [
        "85",
        "2"
      ],
      [
        "b",
        "4d"
      ],
      [
        "41",
        "2"
      ],
      [
        "a",
        "3e"
      ],
      [
        "24",
        "2"
      ],
      [
        "48",
        "2"
      ],
      [
        "89",
        "2"
      ],
      [
        "30T",
        "00"
      ],
      [
        "8",
        "ce"
      ],
      [
        "a",
        "4f"
      ],
      [
        "17",
        "T09"
      ],
      [
        "a",
        "ad"
      ],
      [
        "a",
        "3f"
      ],
      [
        "▁",
        "62"
      ],
      [
        "05",
        "4"
      ],
      [
        "0",
        "81"
      ],
      [
        "a",
        "cf"
      ],
      [
        "28",
        "4"
      ],
      [
        "8",
        "da"
      ],
      [
        "a",
        "4e"
      ],
      [
        "a",
        "9e"
      ],
      [
        "25",
        "4"
      ],
      [
        "a",
        "ca"
      ],
      [
        "99",
        "8"
      ],
      [
        "b",
        "ba"
      ],
      [
        "46",
        "4"
      ],
      [
        "a",
        "8d"
      ],
      [
        "a",
        "2d"
      ],
      [
        "11",
        "3"
      ],
      [
        "a",
        "8e"
      ],
      [
        "b",
        "4c"
      ],
      [
        "▁",
        "80"
      ],
      [
        "85",
        "4"
      ],
      [
        "11",
        "8"
      ],
      [
        "a",
        "75"
      ],
      [
        "02T1",
        "8"
      ],
      [
        "27",
        "T09"
      ],
      [
        "88",
        "2"
      ],
      [
        "8",
        "cb"
      ],
      [
        "77",
        "7"
      ],
      [
        "a",
        "0d"
      ],
      [
        "9",
        "cd"
      ],
      [
        "43",
        "2"
      ],
      [
        "a",
        "af"
      ],
      [
        "27",
        "T12"
      ],
      [
        "66",
        "6"
      ],
      [
        "9",
        "ab"
      ],
      [
        "a",
        "ea"
      ],
      [
        "07",
        "4"
      ],
      [
        "10",
        "T14"
      ],
      [
        "8",
        "4b"
      ],
      [
        "8",
        "ae"
      ],
      [
        "▁1",
        "34"
      ],
      [
        "T1",
        "7"
      ],
      [
        "9",
        "ce"
      ],
      [
        "9",
        "af"
      ],
      [
        "39",
        "2"
      ],
      [
        "41",
        "e"
      ],
      [
        "8",
        "ca"
      ],
      [
        "9",
        "fe"
      ],
      [
        "99",
        "3"
      ],
      [
        "8",
        "ad"
      ],
      [
        "9",
        "0f"
      ],
      [
        "a",
        "2e"
      ],
      [
        "49",
        "4"
      ],
      [
        "15",
        "4"
      ],
      [
        "8",
        "ab"
      ],
      [
        "8",
        "4e"
      ],
      [
        "8",
        "0e"
      ],
      [
        "9",
        "ae"
      ],
      [
        "9",
        "cb"
      ],
      [
        "9",
        "4b"
      ],
      [
        "9",
        "cf"
      ],
      [
        "88",
        "4"
      ],
      [
        "33",
        "2"
      ],
      [
        "06",
        "4"
      ],
      [
        "35",
        "2"
      ],
      [
        "44",
        "2"
      ],
      [
        "20",
        "e"
      ],
      [
        "67",
        "5"
      ],
      [
        "9",
        "da"
      ],
      [
        "b",
        "61"
      ],
      [
        "31",
        "2"
      ],
      [
        "77",
        "5"
      ],
      [
        "8",
        "af"
      ],
      [
        "66",
        "5"
      ],
      [
        "9",
        "0e"
      ],
      [
        "a",
        "4c"
      ],
      [
        "b",
        "75"
      ],
      [
        "55",
        "7"
      ],
      [
        "8",
        "be"
      ],
      [
        "30",
        "e"
      ],
      [
        "16",
        "4"
      ],
      [
        "89",
        "4"
      ],
      [
        "23",
        "4"
      ],
      [
        "8",
        "bf"
      ],
      [
        "9",
        "bf"
      ],
      [
        "81",
        "4"
      ],
      [
        "97",
        "2"
      ],
      [
        "9",
        "ad"
      ],
      [
        "9",
        "4f"
      ],
      [
        "55",
        "6"
      ],
      [
        "9",
        "4e"
      ],
      [
        "48",
        "f"
      ],
      [
        "26",
        "f"
      ],
      [
        "21",
        "4"
      ],
      [
        "77",
        "6"
      ],
      [
        "8",
        "4d"
      ],
      [
        "20",
        "f"
      ],
      [
        "29",
        "e"
      ],
      [
        "30",
        "f"
      ],
      [
        "8",
        "ea"
      ],
      [
        "b",
        "9a"
      ],
      [
        "24",
        "4"
      ],
      [
        "87",
        "4"
      ],
      [
        "8",
        "cf"
      ],
      [
        "8",
        "0f"
      ],
      [
        "8",
        "0d"
      ],
      [
        "9",
        "0d"
      ],
      [
        "01",
        "e"
      ],
      [
        "01",
        "f"
      ],
      [
        "29",
        "f"
      ],
      [
        "44",
        "e"
      ],
      [
        "96",
        "2"
      ],
      [
        "21",
        "f"
      ],
      [
        "9",
        "ba"
      ],
      [
        "a",
        "4a"
      ],
      [
        "▁",
        "75"
      ],
      [
        "30",
        "d"
      ],
      [
        "a",
        "3d"
      ],
      [
        "01",
        "d"
      ],
      [
        "01",
        "T14"
      ],
      [
        "45",
        "f"
      ],
      [
        "8",
        "4f"
      ],
      [
        "8",
        "bd"
      ],
      [
        "▁",
        "46"
      ],
      [
        "9",
        "be"
      ],
      [
        "16",
        "e"
      ],
      [
        "65",
        "7"
      ],
      [
        "45",
        "e"
      ],
      [
        "47",
        "2"
      ],
      [
        "44",
        "4"
      ],
      [
        "55",
        "5"
      ],
      [
        "9",
        "4d"
      ],
      [
        "66",
        "7"
      ],
      [
        "67",
        "9"
      ],
      [
        "0",
        "88"
      ],
      [
        "9",
        "bd"
      ],
      [
        "T1",
        "8"
      ],
      [
        "46",
        "e"
      ],
      [
        "41",
        "d"
      ],
      [
        "97",
        "f"
      ],
      [
        "31",
        "d"
      ],
      [
        "9",
        "ea"
      ],
      [
        "31",
        "4"
      ],
      [
        "86",
        "4"
      ],
      [
        "66",
        "1"
      ],
      [
        "67",
        "1"
      ],
      [
        "01",
        "T03"
      ],
      [
        "05",
        "e"
      ],
      [
        "22",
        "f"
      ],
      [
        "89",
        "e"
      ],
      [
        "85",
        "f"
      ],
      [
        "21",
        "e"
      ],
      [
        "8",
        "ba"
      ],
      [
        "a",
        "0a"
      ],
      [
        "b",
        "0a"
      ],
      [
        "29",
        "4"
      ],
      [
        "20",
        "d"
      ],
      [
        "49",
        "e"
      ],
      [
        "81",
        "d"
      ],
      [
        "b",
        "69"
      ],
      [
        "24",
        "d"
      ],
      [
        "06",
        "e"
      ],
      [
        "b",
        "76"
      ],
      [
        "00",
        "d"
      ],
      [
        "01",
        "T01"
      ],
      [
        "26",
        "4"
      ],
      [
        "a",
        "76"
      ],
      [
        "00",
        "f"
      ],
      [
        "05",
        "f"
      ],
      [
        "03",
        "4"
      ],
      [
        "43",
        "4"
      ],
      [
        "25",
        "f"
      ],
      [
        "37",
        "2"
      ],
      [
        "00",
        "e"
      ],
      [
        "24",
        "f"
      ],
      [
        "16",
        "f"
      ],
      [
        "31",
        "f"
      ],
      [
        "28",
        "e"
      ],
      [
        "28",
        "f"
      ],
      [
        "02",
        "f"
      ],
      [
        "65",
        "1"
      ],
      [
        "8",
        "4a"
      ],
      [
        "46",
        "f"
      ],
      [
        "41",
        "4"
      ],
      [
        "91",
        "2"
      ],
      [
        "9",
        "4c"
      ],
      [
        "b",
        "8a"
      ],
      [
        "31",
        "e"
      ],
      [
        "10",
        "f"
      ],
      [
        "8",
        "cd"
      ],
      [
        "a",
        "8a"
      ],
      [
        "9",
        "4a"
      ],
      [
        "48",
        "4"
      ],
      [
        "87",
        "e"
      ],
      [
        "65",
        "6"
      ],
      [
        "b",
        "8c"
      ],
      [
        "15",
        "f"
      ],
      [
        "26",
        "d"
      ],
      [
        "b",
        "51"
      ],
      [
        "b",
        "71"
      ],
      [
        "04",
        "f"
      ],
      [
        "16",
        "d"
      ],
      [
        "86",
        "d"
      ],
      [
        "87",
        "f"
      ],
      [
        "23",
        "d"
      ],
      [
        "42",
        "f"
      ],
      [
        "33",
        "f"
      ],
      [
        "47",
        "e"
      ],
      [
        "25",
        "d"
      ],
      [
        "85",
        "e"
      ],
      [
        "77",
        "1"
      ],
      [
        "38",
        "2"
      ],
      [
        "a",
        "51"
      ],
      [
        "02",
        "d"
      ],
      [
        "02",
        "e"
      ],
      [
        "22",
        "e"
      ],
      [
        "a",
        "17"
      ],
      [
        "b",
        "09"
      ],
      [
        "b",
        "56"
      ],
      [
        "89",
        "d"
      ],
      [
        "a",
        "61"
      ],
      [
        "b",
        "35"
      ],
      [
        "33",
        "4"
      ],
      [
        "96",
        "e"
      ],
      [
        "95",
        "2"
      ],
      [
        "44",
        "f"
      ],
      [
        "57",
        "5"
      ],
      [
        "43",
        "d"
      ],
      [
        "83",
        "d"
      ],
      [
        "08",
        "2"
      ],
      [
        "22T",
        "00"
      ],
      [
        "85",
        "d"
      ],
      [
        "26",
        "e"
      ],
      [
        "9",
        "ca"
      ],
      [
        "a",
        "71"
      ],
      [
        "24",
        "e"
      ],
      [
        "06",
        "f"
      ],
      [
        "28",
        "d"
      ],
      [
        "99",
        "2"
      ],
      [
        "18",
        "4"
      ],
      [
        "49",
        "d"
      ],
      [
        "25",
        "e"
      ],
      [
        "36",
        "d"
      ],
      [
        "▁",
        "58"
      ],
      [
        "22",
        "d"
      ],
      [
        "42",
        "d"
      ],
      [
        "03",
        "f"
      ],
      [
        "40",
        "f"
      ],
      [
        "86",
        "f"
      ],
      [
        "36",
        "4"
      ],
      [
        "57",
        "6"
      ],
      [
        "47",
        "4"
      ],
      [
        "a",
        "8c"
      ],
      [
        "04",
        "e"
      ],
      [
        "81",
        "f"
      ],
      [
        "05",
        "d"
      ],
      [
        "07",
        "e"
      ],
      [
        "29",
        "d"
      ],
      [
        "45",
        "d"
      ],
      [
        "41",
        "f"
      ],
      [
        "10",
        "e"
      ],
      [
        "89",
        "f"
      ],
      [
        "20",
        "c"
      ],
      [
        "33",
        "e"
      ],
      [
        "28",
        "T05"
      ],
      [
        "39",
        "f"
      ],
      [
        "b",
        "27"
      ],
      [
        "b7",
        "f"
      ],
      [
        "a",
        "35"
      ],
      [
        "49",
        "f"
      ],
      [
        "19",
        "2"
      ],
      [
        "03",
        "e"
      ],
      [
        "40",
        "d"
      ],
      [
        "39",
        "4"
      ],
      [
        "40",
        "e"
      ],
      [
        "23",
        "e"
      ],
      [
        "45",
        "4"
      ],
      [
        "43",
        "e"
      ],
      [
        "a",
        "56"
      ],
      [
        "b",
        "17"
      ],
      [
        "06",
        "d"
      ],
      [
        "10",
        "d"
      ],
      [
        "83",
        "f"
      ],
      [
        "11",
        "2"
      ],
      [
        "8",
        "4c"
      ],
      [
        "39",
        "d"
      ],
      [
        "83",
        "e"
      ],
      [
        "08",
        "f"
      ],
      [
        "07",
        "d"
      ],
      [
        "T",
        "02"
      ],
      [
        "b",
        "9c"
      ],
      [
        "67",
        "6"
      ],
      [
        "01",
        "T10"
      ],
      [
        "16",
        "c"
      ],
      [
        "95",
        "d"
      ],
      [
        "55",
        "9"
      ],
      [
        "96",
        "f"
      ],
      [
        "88",
        "e"
      ],
      [
        "1",
        "02"
      ],
      [
        "b1",
        "e"
      ],
      [
        "48",
        "e"
      ],
      [
        "81",
        "e"
      ],
      [
        "55",
        "1"
      ],
      [
        "a",
        "cc"
      ],
      [
        "23",
        "f"
      ],
      [
        "96",
        "4"
      ],
      [
        "91",
        "f"
      ],
      [
        "cd",
        "e"
      ],
      [
        "b",
        "37"
      ],
      [
        "c",
        "fe"
      ],
      [
        "30",
        "c"
      ],
      [
        "07",
        "f"
      ],
      [
        "46",
        "d"
      ],
      [
        "66",
        "9"
      ],
      [
        "86",
        "e"
      ],
      [
        "77",
        "9"
      ],
      [
        "b6",
        "e"
      ],
      [
        "b6",
        "f"
      ],
      [
        "c5",
        "f"
      ],
      [
        "▁",
        "81"
      ],
      [
        "43",
        "f"
      ],
      [
        "61",
        "3"
      ],
      [
        "a",
        "09"
      ],
      [
        "c",
        "da"
      ],
      [
        "33",
        "d"
      ],
      [
        "88",
        "f"
      ],
      [
        "42",
        "e"
      ],
      [
        "47",
        "f"
      ],
      [
        "95",
        "4"
      ],
      [
        "91",
        "4"
      ],
      [
        "91",
        "d"
      ],
      [
        "04",
        "d"
      ],
      [
        "87",
        "d"
      ],
      [
        "97",
        "4"
      ],
      [
        "69",
        "8"
      ],
      [
        "a",
        "37"
      ],
      [
        "00",
        "c"
      ],
      [
        "49",
        "c"
      ],
      [
        "48",
        "d"
      ],
      [
        "75",
        "6"
      ],
      [
        "97",
        "d"
      ],
      [
        "▁2",
        "04"
      ],
      [
        "a",
        "9a"
      ],
      [
        "ce",
        "f"
      ],
      [
        "22",
        "c"
      ],
      [
        "15",
        "e"
      ],
      [
        "25",
        "T03"
      ],
      [
        "36",
        "f"
      ],
      [
        "77",
        "8"
      ],
      [
        "b3",
        "e"
      ],
      [
        "▁",
        "76"
      ],
      [
        "21",
        "d"
      ],
      [
        "01",
        "T11"
      ],
      [
        "03",
        "d"
      ],
      [
        "88",
        "d"
      ],
      [
        "ca",
        "e"
      ],
      [
        "9",
        "aa"
      ],
      [
        "15",
        "d"
      ],
      [
        "10",
        "T12"
      ],
      [
        "27",
        "e"
      ],
      [
        "66",
        "3"
      ],
      [
        "38",
        "e"
      ],
      [
        "c7",
        "f"
      ],
      [
        "9",
        "bb"
      ],
      [
        "▁",
        "42"
      ],
      [
        "24",
        "c"
      ],
      [
        "38",
        "f"
      ],
      [
        "61",
        "9"
      ],
      [
        "85",
        "c"
      ],
      [
        "87",
        "c"
      ],
      [
        "77",
        "3"
      ],
      [
        "b5",
        "f"
      ],
      [
        "95",
        "e"
      ],
      [
        "36",
        "e"
      ],
      [
        "97",
        "e"
      ],
      [
        "39",
        "e"
      ],
      [
        "b",
        "98"
      ],
      [
        "fe",
        "e"
      ],
      [
        "91",
        "e"
      ],
      [
        "67",
        "8"
      ],
      [
        "b5",
        "d"
      ],
      [
        "25",
        "c"
      ],
      [
        "67",
        "3"
      ],
      [
        "08",
        "4"
      ],
      [
        "▁2",
        "00"
      ],
      [
        "8",
        "bc"
      ],
      [
        "ab",
        "f"
      ],
      [
        "51",
        "9"
      ],
      [
        "c6",
        "e"
      ],
      [
        "c1",
        "e"
      ],
      [
        "86",
        "c"
      ],
      [
        "fe",
        "f"
      ],
      [
        "41",
        "c"
      ],
      [
        "8",
        "aa"
      ],
      [
        "b",
        "68"
      ],
      [
        "▁",
        "98"
      ],
      [
        "57",
        "1"
      ],
      [
        "9",
        "09"
      ],
      [
        "b",
        "79"
      ],
      [
        "96",
        "d"
      ],
      [
        "44",
        "d"
      ],
      [
        "65",
        "3"
      ],
      [
        "08",
        "e"
      ],
      [
        "26",
        "c"
      ],
      [
        "44",
        "c"
      ],
      [
        "cf",
        "f"
      ],
      [
        "b",
        "99"
      ],
      [
        "cd",
        "f"
      ],
      [
        "1",
        "01"
      ],
      [
        "cb",
        "d"
      ],
      [
        "47",
        "d"
      ],
      [
        "28",
        "c"
      ],
      [
        "55",
        "3"
      ],
      [
        "b1",
        "d"
      ],
      [
        "T",
        "06"
      ],
      [
        "27",
        "f"
      ],
      [
        "17",
        "2"
      ],
      [
        "61",
        "8"
      ],
      [
        "bd",
        "e"
      ],
      [
        "cd",
        "d"
      ],
      [
        "46",
        "c"
      ],
      [
        "ca",
        "f"
      ],
      [
        "b1",
        "f"
      ],
      [
        "b",
        "63"
      ],
      [
        "▁",
        "32"
      ],
      [
        "65",
        "8"
      ],
      [
        "65",
        "9"
      ],
      [
        "69",
        "3"
      ],
      [
        "b6",
        "d"
      ],
      [
        "b3",
        "f"
      ],
      [
        "cb",
        "e"
      ],
      [
        "35",
        "4"
      ],
      [
        "08",
        "c"
      ],
      [
        "38",
        "4"
      ],
      [
        "c7",
        "e"
      ],
      [
        "9",
        "cc"
      ],
      [
        "ce",
        "e"
      ],
      [
        "15",
        "c"
      ],
      [
        "ea",
        "f"
      ],
      [
        "b7",
        "d"
      ],
      [
        "b",
        "59"
      ],
      [
        "24T",
        "06"
      ],
      [
        "b3",
        "d"
      ],
      [
        "8",
        "cc"
      ],
      [
        "9",
        "bc"
      ],
      [
        "b",
        "01"
      ],
      [
        "ad",
        "f"
      ],
      [
        "c1",
        "f"
      ],
      [
        "0",
        "be"
      ],
      [
        "04",
        "c"
      ],
      [
        "10",
        "c"
      ],
      [
        "ce",
        "d"
      ],
      [
        "43",
        "c"
      ],
      [
        "39",
        "c"
      ],
      [
        "c6",
        "f"
      ],
      [
        "da",
        "d"
      ],
      [
        "27",
        "d"
      ],
      [
        "42",
        "c"
      ],
      [
        "05",
        "c"
      ],
      [
        "07",
        "c"
      ],
      [
        "29",
        "c"
      ],
      [
        "40",
        "c"
      ],
      [
        "55",
        "8"
      ],
      [
        "93",
        "e"
      ],
      [
        "03",
        "c"
      ],
      [
        "48",
        "c"
      ],
      [
        "36",
        "c"
      ],
      [
        "21",
        "c"
      ],
      [
        "b5",
        "e"
      ],
      [
        "a",
        "59"
      ],
      [
        "b",
        "78"
      ],
      [
        "02",
        "c"
      ],
      [
        "01",
        "57"
      ],
      [
        "a",
        "9c"
      ],
      [
        "82",
        "e"
      ],
      [
        "89",
        "c"
      ],
      [
        "8",
        "bb"
      ],
      [
        "00",
        "0"
      ],
      [
        "47",
        "c"
      ],
      [
        "24T",
        "07"
      ],
      [
        "c7",
        "d"
      ],
      [
        "b",
        "11"
      ],
      [
        "16",
        "0"
      ],
      [
        "31",
        "c"
      ],
      [
        "25",
        "T10"
      ],
      [
        "95",
        "f"
      ],
      [
        "▁",
        "89"
      ],
      [
        "ab",
        "d"
      ],
      [
        "c5",
        "d"
      ],
      [
        "a",
        "98"
      ],
      [
        "83",
        "c"
      ],
      [
        "8",
        "09"
      ],
      [
        "a",
        "79"
      ],
      [
        "a",
        "78"
      ],
      [
        "▁1",
        "40"
      ],
      [
        "45",
        "c"
      ],
      [
        "4f",
        "f"
      ],
      [
        "82",
        "f"
      ],
      [
        "c6",
        "d"
      ],
      [
        "8",
        "0a"
      ],
      [
        "9",
        "0a"
      ],
      [
        "06",
        "66"
      ],
      [
        "4d",
        "e"
      ],
      [
        "a",
        "11"
      ],
      [
        "▁",
        "49"
      ],
      [
        "35",
        "e"
      ],
      [
        "ea",
        "e"
      ],
      [
        "86",
        "a"
      ],
      [
        "93",
        "f"
      ],
      [
        "01",
        "09"
      ],
      [
        "75",
        "9"
      ],
      [
        "cb",
        "c"
      ],
      [
        "15",
        "0"
      ],
      [
        "b7",
        "e"
      ],
      [
        "c1",
        "d"
      ],
      [
        "a",
        "99"
      ],
      [
        "07",
        "57"
      ],
      [
        "ab",
        "e"
      ],
      [
        "81",
        "c"
      ],
      [
        "cf",
        "d"
      ],
      [
        "b3",
        "c"
      ],
      [
        "1",
        "31"
      ],
      [
        "b",
        "73"
      ],
      [
        "cb",
        "f"
      ],
      [
        "97",
        "c"
      ],
      [
        "bf",
        "f"
      ],
      [
        "b",
        "53"
      ],
      [
        "06",
        "87"
      ],
      [
        "08",
        "d"
      ],
      [
        "c5",
        "e"
      ],
      [
        "02",
        "0"
      ],
      [
        "23",
        "c"
      ],
      [
        "9",
        "37"
      ],
      [
        "b",
        "19"
      ],
      [
        "00",
        "57"
      ],
      [
        "da",
        "e"
      ],
      [
        "04",
        "0"
      ],
      [
        "4d",
        "d"
      ],
      [
        "82",
        "d"
      ],
      [
        "a",
        "69"
      ],
      [
        "a",
        "19"
      ],
      [
        "a",
        "68"
      ],
      [
        "a",
        "63"
      ],
      [
        "b5",
        "c"
      ],
      [
        "0",
        "fe"
      ],
      [
        "01",
        "0"
      ],
      [
        "da",
        "f"
      ],
      [
        "91",
        "c"
      ],
      [
        "76",
        "3"
      ],
      [
        "07",
        "0"
      ],
      [
        "ad",
        "d"
      ],
      [
        "95",
        "c"
      ],
      [
        "bf",
        "d"
      ],
      [
        "33",
        "c"
      ],
      [
        "27",
        "c"
      ],
      [
        "0",
        "ae"
      ],
      [
        "▁",
        "53"
      ],
      [
        "bd",
        "f"
      ],
      [
        "00",
        "37"
      ],
      [
        "51",
        "8"
      ],
      [
        "ba",
        "e"
      ],
      [
        "b6",
        "c"
      ],
      [
        "a",
        "13"
      ],
      [
        "b",
        "06"
      ],
      [
        "ad",
        "e"
      ],
      [
        "66",
        "8"
      ],
      [
        "00",
        "55"
      ],
      [
        "88",
        "c"
      ],
      [
        "17",
        "T01"
      ],
      [
        "4d",
        "f"
      ],
      [
        "ba",
        "f"
      ],
      [
        "▁3",
        "00"
      ],
      [
        "4e",
        "e"
      ],
      [
        "cd",
        "c"
      ],
      [
        "30",
        "a"
      ],
      [
        "04",
        "02"
      ],
      [
        "71",
        "9"
      ],
      [
        "b7",
        "c"
      ],
      [
        "a",
        "73"
      ],
      [
        "01",
        "48"
      ],
      [
        "02T0",
        "6"
      ],
      [
        "96",
        "c"
      ],
      [
        "4c",
        "d"
      ],
      [
        "51",
        "3"
      ],
      [
        "38",
        "c"
      ],
      [
        "bd",
        "d"
      ],
      [
        "62",
        "e"
      ],
      [
        "29",
        "0"
      ],
      [
        "35",
        "f"
      ],
      [
        "71",
        "3"
      ],
      [
        "b",
        "18"
      ],
      [
        "02",
        "26"
      ],
      [
        "01",
        "c"
      ],
      [
        "01",
        "28"
      ],
      [
        "05",
        "55"
      ],
      [
        "31T",
        "03"
      ],
      [
        "02",
        "95"
      ],
      [
        "01",
        "26"
      ],
      [
        "05",
        "17"
      ],
      [
        "23",
        "a"
      ],
      [
        "00",
        "04"
      ],
      [
        "da",
        "c"
      ],
      [
        "06",
        "95"
      ],
      [
        "56",
        "8"
      ],
      [
        "22T",
        "09"
      ],
      [
        "c5",
        "c"
      ],
      [
        "c1",
        "c"
      ],
      [
        "1",
        "03"
      ],
      [
        "a",
        "58"
      ],
      [
        "01",
        "07"
      ],
      [
        "fe",
        "d"
      ],
      [
        "▁145",
        "9"
      ],
      [
        "▁196",
        "1"
      ],
      [
        "02",
        "87"
      ],
      [
        "05",
        "87"
      ],
      [
        "ce",
        "5"
      ],
      [
        "▁17",
        "34"
      ],
      [
        "4b",
        "d"
      ],
      [
        "4b",
        "e"
      ],
      [
        "75",
        "3"
      ],
      [
        "75",
        "8"
      ],
      [
        "04",
        "09"
      ],
      [
        "48",
        "b"
      ],
      [
        "4e",
        "f"
      ],
      [
        "4c",
        "f"
      ],
      [
        "be",
        "e"
      ],
      [
        "fe",
        "c"
      ],
      [
        "03",
        "97"
      ],
      [
        "4e",
        "d"
      ],
      [
        "b",
        "13"
      ],
      [
        "03",
        "46"
      ],
      [
        "03",
        "17"
      ],
      [
        "07",
        "09"
      ],
      [
        "28",
        "0"
      ],
      [
        "85",
        "a"
      ],
      [
        "21",
        "a"
      ],
      [
        "▁",
        "79"
      ],
      [
        "00",
        "29"
      ],
      [
        "01",
        "86"
      ],
      [
        "07",
        "87"
      ],
      [
        "32",
        "f"
      ],
      [
        "b",
        "58"
      ],
      [
        "00",
        "15"
      ],
      [
        "00",
        "35"
      ],
      [
        "01",
        "55"
      ],
      [
        "05",
        "04"
      ],
      [
        "16",
        "a"
      ],
      [
        "06",
        "15"
      ],
      [
        "06",
        "37"
      ],
      [
        "38",
        "d"
      ],
      [
        "b1",
        "c"
      ],
      [
        "c6",
        "c"
      ],
      [
        "28",
        "T04"
      ],
      [
        "4f",
        "d"
      ],
      [
        "71",
        "8"
      ],
      [
        "32",
        "d"
      ],
      [
        "0",
        "af"
      ],
      [
        "05",
        "49"
      ],
      [
        "06",
        "89"
      ],
      [
        "ca",
        "5"
      ],
      [
        "ca",
        "c"
      ],
      [
        "93",
        "d"
      ],
      [
        "00",
        "66"
      ],
      [
        "02",
        "89"
      ],
      [
        "02",
        "77"
      ],
      [
        "01",
        "49"
      ],
      [
        "05",
        "86"
      ],
      [
        "05",
        "95"
      ],
      [
        "07",
        "a"
      ],
      [
        "07",
        "25"
      ],
      [
        "▁15",
        "01"
      ],
      [
        "06",
        "24"
      ],
      [
        "4b",
        "f"
      ],
      [
        "▁",
        "86"
      ],
      [
        "00",
        "33"
      ],
      [
        "00",
        "48"
      ],
      [
        "02",
        "28"
      ],
      [
        "05",
        "97"
      ],
      [
        "bc",
        "c"
      ],
      [
        "0",
        "bf"
      ],
      [
        "02",
        "35"
      ],
      [
        "02",
        "57"
      ],
      [
        "04",
        "17"
      ],
      [
        "05",
        "16"
      ],
      [
        "03",
        "66"
      ],
      [
        "07",
        "95"
      ],
      [
        "▁17",
        "44"
      ],
      [
        "25",
        "a"
      ],
      [
        "99",
        "4"
      ],
      [
        "be",
        "f"
      ],
      [
        "▁13",
        "25"
      ],
      [
        "a",
        "53"
      ],
      [
        "02",
        "29"
      ],
      [
        "01",
        "96"
      ],
      [
        "16",
        "b"
      ],
      [
        "98",
        "e"
      ],
      [
        "▁19",
        "15"
      ],
      [
        "▁14",
        "41"
      ],
      [
        "▁14",
        "27"
      ],
      [
        "0",
        "cf"
      ],
      [
        "05",
        "66"
      ],
      [
        "07",
        "36"
      ],
      [
        "07",
        "77"
      ],
      [
        "▁17",
        "70"
      ],
      [
        "22",
        "a"
      ],
      [
        "40",
        "a"
      ],
      [
        "27",
        "b"
      ],
      [
        "▁146",
        "3"
      ],
      [
        "00",
        "47"
      ],
      [
        "00",
        "86"
      ],
      [
        "01",
        "89"
      ],
      [
        "30",
        "b"
      ],
      [
        "05",
        "a"
      ],
      [
        "05",
        "85"
      ],
      [
        "07",
        "46"
      ],
      [
        "07",
        "55"
      ],
      [
        "15",
        "b"
      ],
      [
        "09",
        "2"
      ],
      [
        "0e",
        "f"
      ],
      [
        "▁14",
        "24"
      ],
      [
        "▁145",
        "2"
      ],
      [
        "01",
        "33"
      ],
      [
        "▁16",
        "49"
      ],
      [
        "▁149",
        "4"
      ],
      [
        "▁185",
        "4"
      ],
      [
        "▁",
        "85"
      ],
      [
        "00",
        "28"
      ],
      [
        "02",
        "55"
      ],
      [
        "▁1",
        "409"
      ],
      [
        "05",
        "45"
      ],
      [
        "05",
        "57"
      ],
      [
        "20",
        "a"
      ],
      [
        "03",
        "95"
      ],
      [
        "07",
        "47"
      ],
      [
        "06",
        "96"
      ],
      [
        "ad",
        "5"
      ],
      [
        "4a",
        "f"
      ],
      [
        "56",
        "3"
      ],
      [
        "cd",
        "7"
      ],
      [
        "bb",
        "7"
      ],
      [
        "▁19",
        "38"
      ],
      [
        "▁195",
        "3"
      ],
      [
        "▁149",
        "9"
      ],
      [
        "▁181",
        "3"
      ],
      [
        "00",
        "41"
      ],
      [
        "00",
        "26"
      ],
      [
        "00",
        "67"
      ],
      [
        "02",
        "36"
      ],
      [
        "02",
        "37"
      ],
      [
        "04",
        "37"
      ],
      [
        "05",
        "41"
      ],
      [
        "03",
        "a"
      ],
      [
        "▁17",
        "76"
      ],
      [
        "43",
        "a"
      ],
      [
        "09",
        "d"
      ],
      [
        "89",
        "b"
      ],
      [
        "26",
        "a"
      ],
      [
        "ea",
        "c"
      ],
      [
        "cc",
        "7"
      ],
      [
        "▁148",
        "2"
      ],
      [
        "00",
        "45"
      ],
      [
        "00",
        "17"
      ],
      [
        "02",
        "48"
      ],
      [
        "02",
        "85"
      ],
      [
        "da",
        "6"
      ],
      [
        "da",
        "7"
      ],
      [
        "03",
        "57"
      ],
      [
        "07",
        "66"
      ],
      [
        "▁17",
        "58"
      ],
      [
        "76",
        "8"
      ],
      [
        "de",
        "d"
      ],
      [
        "▁14",
        "25"
      ],
      [
        "▁133",
        "5"
      ],
      [
        "▁145",
        "1"
      ],
      [
        "00",
        "25"
      ],
      [
        "00",
        "27"
      ],
      [
        "00",
        "96"
      ],
      [
        "02",
        "49"
      ],
      [
        "02",
        "47"
      ],
      [
        "01",
        "46"
      ],
      [
        "01",
        "85"
      ],
      [
        "05",
        "0"
      ],
      [
        "05",
        "09"
      ],
      [
        "07",
        "28"
      ],
      [
        "07",
        "65"
      ],
      [
        "▁15",
        "36"
      ],
      [
        "▁15",
        "67"
      ],
      [
        "31",
        "a"
      ],
      [
        "52",
        "f"
      ],
      [
        "12",
        "f"
      ],
      [
        "▁13",
        "48"
      ],
      [
        "▁18",
        "41"
      ],
      [
        "c7",
        "c"
      ],
      [
        "▁14",
        "06"
      ],
      [
        "1",
        "87"
      ],
      [
        "b",
        "0c"
      ],
      [
        "02",
        "96"
      ],
      [
        "01",
        "65"
      ],
      [
        "04",
        "16"
      ],
      [
        "04",
        "49"
      ],
      [
        "04",
        "46"
      ],
      [
        "03",
        "48"
      ],
      [
        "07",
        "85"
      ],
      [
        "T1",
        "3"
      ],
      [
        "06",
        "c"
      ],
      [
        "06",
        "17"
      ],
      [
        "89",
        "a"
      ],
      [
        "ca",
        "7"
      ],
      [
        "42",
        "a"
      ],
      [
        "▁13",
        "97"
      ],
      [
        "▁19",
        "20"
      ],
      [
        "▁195",
        "2"
      ],
      [
        "00",
        "a"
      ],
      [
        "01",
        "87"
      ],
      [
        "04",
        "85"
      ],
      [
        "05",
        "65"
      ],
      [
        "03",
        "41"
      ],
      [
        "03",
        "96"
      ],
      [
        "07",
        "89"
      ],
      [
        "▁15",
        "47"
      ],
      [
        "▁15",
        "57"
      ],
      [
        "06",
        "45"
      ],
      [
        "06",
        "36"
      ],
      [
        "28",
        "T01"
      ],
      [
        "44",
        "a"
      ],
      [
        "17",
        "e"
      ],
      [
        "4f",
        "c"
      ],
      [
        "77",
        "2"
      ],
      [
        "98",
        "2"
      ],
      [
        "92",
        "f"
      ],
      [
        "▁185",
        "1"
      ],
      [
        "▁187",
        "1"
      ],
      [
        "01",
        "35"
      ],
      [
        "01",
        "36"
      ],
      [
        "04",
        "87"
      ],
      [
        "05",
        "29"
      ],
      [
        "05",
        "48"
      ],
      [
        "▁16",
        "28"
      ],
      [
        "▁16",
        "42"
      ],
      [
        "▁16",
        "51"
      ],
      [
        "▁15",
        "07"
      ],
      [
        "▁15",
        "45"
      ],
      [
        "▁15",
        "10"
      ],
      [
        "▁15",
        "44"
      ],
      [
        "06",
        "48"
      ],
      [
        "09",
        "e"
      ],
      [
        "ca",
        "6"
      ],
      [
        "ba",
        "c"
      ],
      [
        "cc",
        "6"
      ],
      [
        "▁18",
        "26"
      ],
      [
        "▁19",
        "03"
      ],
      [
        "▁19",
        "39"
      ],
      [
        "▁135",
        "2"
      ],
      [
        "▁185",
        "5"
      ],
      [
        "▁147",
        "5"
      ],
      [
        "1",
        "04"
      ],
      [
        "00",
        "87"
      ],
      [
        "00",
        "65"
      ],
      [
        "01",
        "16"
      ],
      [
        "04",
        "27"
      ],
      [
        "ce",
        "c"
      ],
      [
        "▁16",
        "17"
      ],
      [
        "▁17",
        "28"
      ],
      [
        "▁15",
        "50"
      ],
      [
        "37",
        "e"
      ],
      [
        "▁18",
        "16"
      ],
      [
        "▁19",
        "49"
      ],
      [
        "▁19",
        "46"
      ],
      [
        "▁137",
        "5"
      ],
      [
        "▁141",
        "8"
      ],
      [
        "1",
        "85"
      ],
      [
        "04",
        "97"
      ],
      [
        "04",
        "57"
      ],
      [
        "05",
        "15"
      ],
      [
        "05",
        "25"
      ],
      [
        "05",
        "27"
      ],
      [
        "05",
        "26"
      ],
      [
        "05",
        "77"
      ],
      [
        "cb",
        "6"
      ],
      [
        "▁16",
        "27"
      ],
      [
        "▁15",
        "66"
      ],
      [
        "10",
        "T11"
      ],
      [
        "25",
        "b"
      ],
      [
[...]
